{"version": "1.0", "truncation": null, "padding": null, "added_tokens": [{"id": 8188, "content": "<pad>", "single_word": false, "lstrip": false, "rstrip": false, "normalized": false, "special": true}, {"id": 8189, "content": "<eos>", "single_word": false, "lstrip": false, "rstrip": false, "normalized": false, "special": true}, {"id": 8190, "content": "<bos>", "single_word": false, "lstrip": false, "rstrip": false, "normalized": false, "special": true}, {"id": 8191, "content": "<unk>", "single_word": false, "lstrip": false, "rstrip": false, "normalized": false, "special": true}], "normalizer": null, "pre_tokenizer": {"type": "ByteLevel", "add_prefix_space": false, "trim_offsets": true, "use_regex": true}, "post_processor": {"type": "ByteLevel", "add_prefix_space": false, "trim_offsets": true, "use_regex": true}, "decoder": {"type": "ByteLevel", "add_prefix_space": false, "trim_offsets": true, "use_regex": true}, "model": {"type": "BPE", "dropout": null, "unk_token": null, "continuing_subword_prefix": "", "end_of_word_suffix": "", "fuse_unk": false, "byte_fallback": false, "vocab": {"Ā": 0, "ā": 1, "Ă": 2, "ă": 3, "Ą": 4, "ą": 5, "Ć": 6, "ć": 7, "Ĉ": 8, "ĉ": 9, "Ċ": 10, "ċ": 11, "Č": 12, "č": 13, "Ď": 14, "ď": 15, "Đ": 16, "đ": 17, "Ē": 18, "ē": 19, "Ĕ": 20, "ĕ": 21, "Ė": 22, "ė": 23, "Ę": 24, "ę": 25, "Ě": 26, "ě": 27, "Ĝ": 28, "ĝ": 29, "Ğ": 30, "ğ": 31, "Ġ": 32, "!": 33, "\"": 34, "#": 35, "$": 36, "%": 37, "&": 38, "'": 39, "(": 40, ")": 41, "*": 42, "+": 43, ",": 44, "-": 45, ".": 46, "/": 47, "0": 48, "1": 49, "2": 50, "3": 51, "4": 52, "5": 53, "6": 54, "7": 55, "8": 56, "9": 57, ":": 58, ";": 59, "<": 60, "=": 61, ">": 62, "?": 63, "@": 64, "A": 65, "B": 66, "C": 67, "D": 68, "E": 69, "F": 70, "G": 71, "H": 72, "I": 73, "J": 74, "K": 75, "L": 76, "M": 77, "N": 78, "O": 79, "P": 80, "Q": 81, "R": 82, "S": 83, "T": 84, "U": 85, "V": 86, "W": 87, "X": 88, "Y": 89, "Z": 90, "[": 91, "\\": 92, "]": 93, "^": 94, "_": 95, "`": 96, "a": 97, "b": 98, "c": 99, "d": 100, "e": 101, "f": 102, "g": 103, "h": 104, "i": 105, "j": 106, "k": 107, "l": 108, "m": 109, "n": 110, "o": 111, "p": 112, "q": 113, "r": 114, "s": 115, "t": 116, "u": 117, "v": 118, "w": 119, "x": 120, "y": 121, "z": 122, "{": 123, "|": 124, "}": 125, "~": 126, "ġ": 127, "Ģ": 128, "ģ": 129, "Ĥ": 130, "ĥ": 131, "Ħ": 132, "ħ": 133, "Ĩ": 134, "ĩ": 135, "Ī": 136, "ī": 137, "Ĭ": 138, "ĭ": 139, "Į": 140, "į": 141, "İ": 142, "ı": 143, "Ĳ": 144, "ĳ": 145, "Ĵ": 146, "ĵ": 147, "Ķ": 148, "ķ": 149, "ĸ": 150, "Ĺ": 151, "ĺ": 152, "Ļ": 153, "ļ": 154, "Ľ": 155, "ľ": 156, "Ŀ": 157, "ŀ": 158, "Ł": 159, "ł": 160, "¡": 161, "¢": 162, "£": 163, "¤": 164, "¥": 165, "¦": 166, "§": 167, "¨": 168, "©": 169, "ª": 170, "«": 171, "¬": 172, "Ń": 173, "®": 174, "¯": 175, "°": 176, "±": 177, "²": 178, "³": 179, "´": 180, "µ": 181, "¶": 182, "·": 183, "¸": 184, "¹": 185, "º": 186, "»": 187, "¼": 188, "½": 189, "¾": 190, "¿": 191, "À": 192, "Á": 193, "Â": 194, "Ã": 195, "Ä": 196, "Å": 197, "Æ": 198, "Ç": 199, "È": 200, "É": 201, "Ê": 202, "Ë": 203, "Ì": 204, "Í": 205, "Î": 206, "Ï": 207, "Ð": 208, "Ñ": 209, "Ò": 210, "Ó": 211, "Ô": 212, "Õ": 213, "Ö": 214, "×": 215, "Ø": 216, "Ù": 217, "Ú": 218, "Û": 219, "Ü": 220, "Ý": 221, "Þ": 222, "ß": 223, "à": 224, "á": 225, "â": 226, "ã": 227, "ä": 228, "å": 229, "æ": 230, "ç": 231, "è": 232, "é": 233, "ê": 234, "ë": 235, "ì": 236, "í": 237, "î": 238, "ï": 239, "ð": 240, "ñ": 241, "ò": 242, "ó": 243, "ô": 244, "õ": 245, "ö": 246, "÷": 247, "ø": 248, "ù": 249, "ú": 250, "û": 251, "ü": 252, "ý": 253, "þ": 254, "ÿ": 255, "he": 256, "Ġt": 257, "Ġa": 258, "Ġs": 259, "Ġw": 260, "nd": 261, "Ġthe": 262, "ed": 263, "Ġand": 264, "Ġto": 265, "Ġb": 266, "in": 267, "Ġh": 268, "Ġwa": 269, "re": 270, "ou": 271, "Ġf": 272, "it": 273, "Ġl": 274, "Ġc": 275, "Ġd": 276, "er": 277, "Ġhe": 278, "Ġm": 279, "Ġp": 280, "Ġwas": 281, "om": 282, "ĊĊ": 283, "ĠT": 284, "Ġo": 285, "ay": 286, "ar": 287, "is": 288, "ing": 289, "il": 290, "Ġg": 291, "id": 292, "at": 293, "en": 294, "Ġn": 295, "Ġsa": 296, "Ġha": 297, "ĠS": 298, "ĠThe": 299, "an": 300, "im": 301, "or": 302, "on": 303, "Ġit": 304, "Ġth": 305, ".ĊĊ": 306, "ll": 307, "le": 308, "ĠH": 309, "Ġher": 310, "ot": 311, "et": 312, "ir": 313, "ĠShe": 314, "es": 315, "ĠHe": 316, "Ġin": 317, "ver": 318, "ut": 319, "ow": 320, "ĠThey": 321, "ck": 322, "Ġe": 323, "Ġu": 324, "ld": 325, "Ġy": 326, "oo": 327, "Ġsaid": 328, "ig": 329, "Ġ\"": 330, "ily": 331, "Ġr": 332, "Ġbe": 333, "am": 334, "Ġst": 335, "ĠI": 336, "ce": 337, "ke": 338, "Ġshe": 339, "ve": 340, "pp": 341, "ith": 342, "Ġwith": 343, "Lily": 344, "On": 345, "Ġon": 346, "Ġyou": 347, "Ġof": 348, "ked": 349, "ri": 350, "Ġso": 351, "nt": 352, "Ġhis": 353, "Ġpl": 354, "ad": 355, "very": 356, "Ġday": 357, "Ġthat": 358, "Ġup": 359, "Ġplay": 360, "Ġhad": 361, "st": 362, "Ġthey": 363, "Ġwe": 364, "ĠLily": 365, "Ġmom": 366, "Ġfor": 367, "ĠB": 368, "el": 369, "un": 370, "ould": 371, "'s": 372, "my": 373, "The": 374, "Ġli": 375, "ch": 376, "ent": 377, "Ġhapp": 378, "Ġwant": 379, "itt": 380, "Ġsh": 381, "out": 382, "her": 383, "Ġdo": 384, "ly": 385, "Ġnot": 386, "ome": 387, "se": 388, "Ġvery": 389, "ound": 390, "end": 391, "all": 392, "Ġwh": 393, "ime": 394, "ittle": 395, "Ġk": 396, "Ġtime": 397, "Ġlittle": 398, "al": 399, "Ġthere": 400, "\"ĊĊ": 401, "Ġne": 402, "ht": 403, "ĠM": 404, "Ġre": 405, "Ġhappy": 406, "Ġsm": 407, "Ġbig": 408, "Ġis": 409, "ĠIt": 410, "ĠĊĊ": 411, "Ġbut": 412, "ack": 413, "Ġan": 414, "Ġsaw": 415, "riend": 416, "Ġfriend": 417, "ry": 418, "Ġas": 419, "ra": 420, "One": 421, "ide": 422, "ake": 423, "'t": 424, "ug": 425, "Ġloo": 426, "ved": 427, "ter": 428, "Ġwere": 429, "ore": 430, "Once": 431, "Ġlo": 432, "ec": 433, "Ġhim": 434, "Ġtoo": 435, "Ġgo": 436, "Ġbo": 437, "Ġse": 438, "irl": 439, "Ġare": 440, "Ġj": 441, "ĠTim": 442, "ard": 443, "Ġwanted": 444, "ill": 445, "Ġgirl": 446, "Ġupon": 447, "Ġthem": 448, "Ġout": 449, "Ġat": 450, "ur": 451, "ind": 452, "Ġtheir": 453, "fu": 454, "Ġsp": 455, "way": 456, "ĠA": 457, "Ġsmil": 458, "Ġdid": 459, "Ġcould": 460, "hen": 461, "Ġhave": 462, "ain": 463, "art": 464, "Ġex": 465, "hed": 466, "!\"": 467, "rom": 468, "Ġwent": 469, "Ġar": 470, "ic": 471, "Ġcan": 472, "ĠJ": 473, "lp": 474, "ful": 475, "ĠBen": 476, "ood": 477, "hing": 478, "Ġfriends": 479, "Ġnam": 480, "ight": 481, "Ġall": 482, "Ġhelp": 483, "Ġkn": 484, "um": 485, "one": 486, "ark": 487, "Ġback": 488, "Ġsay": 489, ".\"ĊĊ": 490, "You": 491, "Ġfun": 492, "Ġcl": 493, "ĠTom": 494, "are": 495, "Ġno": 496, "Ġle": 497, "op": 498, "Ġsmiled": 499, "Ġsc": 500, "Ġnamed": 501, "Ġal": 502, "oug": 503, "Ġloved": 504, "side": 505, "elt": 506, "ĠOne": 507, "Ġman": 508, "Ġasked": 509, "ick": 510, "Ġtoy": 511, "Ġlike": 512, "Ġfe": 513, "Ġfelt": 514, "Ġlooked": 515, "Ġsome": 516, "Ġaround": 517, "Ġsee": 518, "Ġme": 519, "ame": 520, "omet": 521, "ĠW": 522, "Ġro": 523, "Ġbr": 524, "ure": 525, "ĠTimmy": 526, "Ġbir": 527, "get": 528, "ice": 529, "Ġboy": 530, "Ġwould": 531, "Ġstart": 532, "ong": 533, "Ã¢": 534, "Ĥ¬": 535, "âĤ¬": 536, "ss": 537, "Ġbird": 538, "Ġsomet": 539, "Ġfa": 540, "dd": 541, "ings": 542, "Ġag": 543, "Ġwor": 544, "Ġwhat": 545, "ade": 546, "Ġmake": 547, "king": 548, ",\"": 549, "ie": 550, "ĠBut": 551, "own": 552, "Ġtre": 553, "Ġran": 554, "gether": 555, "ĠYou": 556, "Ġaway": 557, "ag": 558, "ared": 559, "Ġsays": 560, "Ġstarted": 561, "oud": 562, "if": 563, ".\"": 564, "Ġmade": 565, "Ġcar": 566, "Ġsomething": 567, "Ġtogether": 568, "ited": 569, "ther": 570, "Ġpark": 571, "Ġco": 572, "Ġsad": 573, "Ġother": 574, "Ġnew": 575, "?\"": 576, "Ġexc": 577, "Ġput": 578, "Ġfrom": 579, "Ġpr": 580, "ell": 581, "ĠL": 582, "Ġla": 583, "Ġhug": 584, "ble": 585, "Ġmu": 586, "ook": 587, "ach": 588, "Ġagain": 589, "Ġhome": 590, "Ġwhen": 591, "Ġgood": 592, "hat": 593, "ep": 594, "Ġwho": 595, "est": 596, "ried": 597, "Ġfound": 598, "Ġfl": 599, "Ġthen": 600, "Ġch": 601, "Ġdec": 602, "pped": 603, "Ġwal": 604, "as": 605, "Ġget": 606, "qu": 607, "Ġplaying": 608, "ought": 609, "pl": 610, "ĠE": 611, "ally": 612, "Ġsw": 613, "ous": 614, "nn": 615, "Ġthings": 616, "Ġexcited": 617, "Ġliked": 618, "Ġgot": 619, "uck": 620, "ro": 621, "ided": 622, "Ġdecided": 623, "Ġbl": 624, "ave": 625, "Ġcame": 626, "Ġevery": 627, "ara": 628, "Ġyour": 629, "ĠD": 630, "ĠMom": 631, "ax": 632, "Ġv": 633, "Ġscared": 634, "ust": 635, "Ġone": 636, "Ġdog": 637, "Ġdown": 638, "ouse": 639, "ny": 640, "Ġfind": 641, "Ġcare": 642, "Ġbec": 643, "ist": 644, "Ġthan": 645, "Ġfeel": 646, "ap": 647, "ue": 648, "udd": 649, "nna": 650, "Ġdad": 651, "Ġab": 652, "They": 653, "Ġmy": 654, "Ġlook": 655, "Ġke": 656, "our": 657, "Ġwill": 658, "arn": 659, "Ġgr": 660, "us": 661, "nder": 662, "Ġgra": 663, "ways": 664, "ess": 665, "Ġdidn": 666, "Ġpo": 667, "fe": 668, "Ġalways": 669, "Ġtook": 670, "Ġabout": 671, "ant": 672, "bb": 673, "Ġlot": 674, "Ġmommy": 675, "Ġtoys": 676, "Ġkne": 677, "ers": 678, "ise": 679, "ite": 680, "Ġoutside": 681, "Ġtree": 682, "Ġthought": 683, "Ġball": 684, "ĠF": 685, "Ġmore": 686, "eci": 687, "ĠSam": 688, "ened": 689, "ched": 690, "Ġta": 691, "!\"ĊĊ": 692, "Ġold": 693, "Ġho": 694, "Ġlearn": 695, "ret": 696, "Ġint": 697, "ged": 698, "Ġknow": 699, "Ġlaug": 700, "Ġtake": 701, "ecial": 702, "Ġspecial": 703, "Ġsor": 704, "Ġcat": 705, "udden": 706, "Ġknew": 707, "ĠMax": 708, "ive": 709, "ia": 710, "Ġpe": 711, "Ġany": 712, "uddenly": 713, "Ġtr": 714, "fter": 715, "Ġhow": 716, "?\"ĊĊ": 717, "ma": 718, "Ġshow": 719, "ink": 720, "Ġsorry": 721, "Ġtw": 722, "But": 723, "Ġmuch": 724, "au": 725, "ish": 726, "Ġrun": 727, "and": 728, "Ġhand": 729, "Ġsl": 730, "ven": 731, "Ġhouse": 732, "Ġor": 733, "Ġop": 734, "Ġsk": 735, "Ġmo": 736, "Ġclo": 737, "Ġsun": 738, "Ġinto": 739, "Ġtried": 740, "Ġinside": 741, "ate": 742, "Ġtold": 743, "Ġwater": 744, "Ġthis": 745, "Ġen": 746, "ank": 747, "Ġif": 748, "Ġproud": 749, "ump": 750, "Ġqu": 751, "Ġover": 752, "Ġcouldn": 753, "Tom": 754, "dy": 755, "Ġgave": 756, "Ġheard": 757, "ĠSara": 758, "Ġnever": 759, "by": 760, "Ġeach": 761, "ace": 762, "Ġroom": 763, "ty": 764, "Ġexpl": 765, "ĠEvery": 766, "Ġeat": 767, "ĠWe": 768, "other": 769, "ause": 770, "Ġpick": 771, "ion": 772, "Ġpret": 773, "ĠAnna": 774, "Mom": 775, "Ġplayed": 776, "ge": 777, "etter": 778, "Ġjust": 779, "ak": 780, "Ġhugged": 781, "Ġgre": 782, "here": 783, "Ġoff": 784, "Ġcom": 785, "Ġwat": 786, "oth": 787, "Ġbox": 788, "Ġnice": 789, "'m": 790, "Ġstr": 791, "Ġbecause": 792, "Ġneed": 793, "ile": 794, "Ġmany": 795, "Ġfo": 796, "uc": 797, "Ġjo": 798, "Ġbear": 799, "Ġsmall": 800, "iz": 801, "Ġbu": 802, "ving": 803, "Ġlong": 804, "ine": 805, "gry": 806, "imal": 807, "ort": 808, "Ġanimal": 809, "Ġsn": 810, "ough": 811, "Ġtry": 812, "Ġunt": 813, "ild": 814, "sel": 815, "urt": 816, "Ġuntil": 817, "ĠJack": 818, "sed": 819, "Ġkind": 820, "Ġlearned": 821, "Ġim": 822, "Ġlove": 823, "Ġbetter": 824, "ft": 825, "Ġflow": 826, "Ġcall": 827, "Ġdon": 828, "He": 829, "ĠJo": 830, "Ġend": 831, "Ġad": 832, "ull": 833, "Ġbest": 834, "vent": 835, "Yes": 836, "ars": 837, "urp": 838, "ady": 839, "em": 840, "ream": 841, "aut": 842, "urn": 843, "ĠMia": 844, "Ġcle": 845, "ĠAnd": 846, "ves": 847, "âĤ¬Å": 848, "âĤ¬Åĵ": 849, "arden": 850, "ĠC": 851, "Ġgarden": 852, "Ġfast": 853, "Ġcareful": 854, "ber": 855, "Ġbeaut": 856, "lly": 857, "Th": 858, "Ġeven": 859, "pt": 860, "Ġbra": 861, "ies": 862, "Ġthanked": 863, "Ġfi": 864, "ĠSo": 865, "Ġche": 866, "Ġlaughed": 867, "Ġsky": 868, "Ġby": 869, "It": 870, "ĠHer": 871, "Ġjump": 872, "Ġgl": 873, "ase": 874, "Ġte": 875, "Ġloud": 876, "self": 877, "iny": 878, "Ġway": 879, "wn": 880, "Ġbeauti": 881, "Ġcome": 882, "lew": 883, "Ġlist": 884, "Ġwo": 885, "Ġbeautiful": 886, "Ġhard": 887, "Ġlots": 888, "Ġra": 889, "Ġstill": 890, "Ġfam": 891, "Ġanimals": 892, "ĠÃ¢": 893, "Ġhurt": 894, "Ġunder": 895, "ĠThen": 896, "ect": 897, "Ġstay": 898, "ning": 899, "Ġlet": 900, "ct": 901, "Ġboth": 902, "Ġcu": 903, "ĠHis": 904, "hes": 905, "be": 906, "Ġsafe": 907, "ĠFrom": 908, "ool": 909, "ree": 910, "Ġcol": 911, "Ġtwo": 912, "Ġbad": 913, "Ġbook": 914, "Ġimp": 915, "ople": 916, "Ġrem": 917, "ane": 918, "Ġlived": 919, "kay": 920, "ock": 921, "ucy": 922, "Ġwalked": 923, "Tim": 924, "ast": 925, "urpr": 926, "Ġbrave": 927, "Ġshould": 928, "Ġits": 929, "ob": 930, "ished": 931, "Ġangry": 932, "Ġsurpr": 933, "Ġfamily": 934, "!ĊĊ": 935, "ress": 936, "igh": 937, "When": 938, "Ġpeople": 939, "Ġflew": 940, "Ġcalled": 941, "No": 942, "Ġred": 943, "Ġstor": 944, "ip": 945, "Ġsoon": 946, "Ġfin": 947, "hn": 948, "Let": 949, "led": 950, "Ġkept": 951, "Ġfore": 952, "fore": 953, "Ġdan": 954, "Ġshare": 955, "Ġfly": 956, "xt": 957, "ised": 958, "dded": 959, "Ġpic": 960, "âĤ¬â": 961, "Ġdoor": 962, "Ġgoing": 963, "ĠP": 964, "ĠWhen": 965, "Ġpretty": 966, "Ġkeep": 967, "Ġnow": 968, "Ġrock": 969, "Ġclean": 970, "Ġdra": 971, "ary": 972, "Ġadvent": 973, "ummy": 974, "Ġnoise": 975, "Ġopened": 976, "Ġshiny": 977, "age": 978, "Ġexplore": 979, "Ġwind": 980, "Ġdoll": 981, "Ġcry": 982, "Ġcon": 983, "Ġide": 984, "Ġbefore": 985, "ied": 986, "Ben": 987, "illy": 988, "Ġreal": 989, "Ġsto": 990, "so": 991, "What": 992, "Ġground": 993, "Ġalso": 994, "les": 995, "Ġturn": 996, "Ħ¢": 997, "âĤ¬âĦ¢": 998, "Ġey": 999, "That": 1000, "Ġfar": 1001, "Ġidea": 1002, "Ġfr": 1003, "oon": 1004, "Ġnodded": 1005, "Ġcolor": 1006, "Ġwar": 1007, "oy": 1008, "Ġfeeling": 1009, "Ġun": 1010, "Ġpicked": 1011, "imb": 1012, "th": 1013, "ĠLucy": 1014, "Ġnext": 1015, "Ġwalking": 1016, "thing": 1017, "ture": 1018, "ĠDad": 1019, "Ġclimb": 1020, "Ġhas": 1021, "uch": 1022, "Ġma": 1023, "Ġthr": 1024, "Ġwhile": 1025, "eet": 1026, "Ġbed": 1027, "Ġadventure": 1028, "Ġsmile": 1029, "kes": 1030, "aybe": 1031, "Thank": 1032, "iced": 1033, "ger": 1034, "ious": 1035, "ĠG": 1036, "Ġbeing": 1037, "Ġdif": 1038, "Ġwr": 1039, "Ġclos": 1040, "Ġfood": 1041, "joy": 1042, "ted": 1043, "Ġgive": 1044, "Ġpicture": 1045, "Ġthink": 1046, "ĠSp": 1047, "Ġlooking": 1048, "Ġdel": 1049, "ff": 1050, "ac": 1051, "Ġtruck": 1052, "Ġwait": 1053, "Ġeyes": 1054, "ught": 1055, "Ġtow": 1056, "ting": 1057, "Ġrepl": 1058, "Ġbro": 1059, "Ġstopped": 1060, "Ġlisten": 1061, "Ġafter": 1062, "Ġbre": 1063, "Ġown": 1064, "Ġvo": 1065, "Ġwalk": 1066, "ember": 1067, "ĠSuddenly": 1068, "Ġwonder": 1069, "Ġgreat": 1070, "Ġhands": 1071, "Suddenly": 1072, "Ġshout": 1073, "Ġhead": 1074, "Ġenjoy": 1075, "Ġimport": 1076, "Ġflowers": 1077, "Ġever": 1078, "Ġnoticed": 1079, "Ġblue": 1080, "Ġforest": 1081, "bbit": 1082, "She": 1083, "ized": 1084, "Ġapp": 1085, "irst": 1086, "Ġnear": 1087, "Ġquick": 1088, "Ġdis": 1089, "Ġde": 1090, "able": 1091, "Ġimportant": 1092, "Ġremember": 1093, "Ġfish": 1094, "llow": 1095, "Ġsound": 1096, "Ġslide": 1097, "Ġus": 1098, "maz": 1099, "Ġreplied": 1100, "Ġamaz": 1101, "Ġac": 1102, "lease": 1103, "Ġwork": 1104, "Ġwatch": 1105, "Ġrain": 1106, "Ġshowed": 1107, "Ġrabbit": 1108, "Ġokay": 1109, "gan": 1110, "Ġtal": 1111, "bye": 1112, "fere": 1113, "bbed": 1114, "Ġask": 1115, "Ġdiffere": 1116, "Ġmean": 1117, "Ġright": 1118, "Ġye": 1119, "day": 1120, "Ġwatched": 1121, "Ġbright": 1122, "Ġfollow": 1123, "We": 1124, "ĠSpot": 1125, "So": 1126, "Ġeveryone": 1127, "Ġstrong": 1128, "Ġsqu": 1129, "Ġstick": 1130, "Ġuse": 1131, "Ġbeen": 1132, "Ġmor": 1133, "Ġvoice": 1134, "Ġtra": 1135, "ered": 1136, "Ġquickly": 1137, "ath": 1138, "Ġour": 1139, "Ġwhere": 1140, "Ġyell": 1141, "ĠN": 1142, "ĠMommy": 1143, "Anna": 1144, "Ġdifferent": 1145, "ĠBob": 1146, "Ġchild": 1147, "Ġcuri": 1148, "Ġboat": 1149, "ng": 1150, "Ġsure": 1151, "ĠSue": 1152, "Ġbecame": 1153, "Ġgoodbye": 1154, "Ġface": 1155, "Ġplace": 1156, "ange": 1157, "Ġhop": 1158, "Ġhigh": 1159, "Ġam": 1160, "Look": 1161, "aught": 1162, "ĠR": 1163, "Ġcloser": 1164, "Ġstore": 1165, "Ġwarm": 1166, "Ġdoes": 1167, "Ġcr": 1168, "Ġdress": 1169, "Sara": 1170, "unny": 1171, "Ġcurious": 1172, "Ġmag": 1173, "ila": 1174, "Jo": 1175, "Ġcook": 1176, "Ġbel": 1177, "Ġforg": 1178, "Ġtell": 1179, "Ġfav": 1180, "ndma": 1181, "ass": 1182, "ount": 1183, "co": 1184, "Ġthree": 1185, "leep": 1186, "Ġnight": 1187, "Ġopen": 1188, "Ġcake": 1189, "more": 1190, "Ġhere": 1191, "Ġanymore": 1192, "Ġblock": 1193, "Ġfirst": 1194, "itc": 1195, "Ġbus": 1196, "Ġpull": 1197, "iss": 1198, "ached": 1199, "Her": 1200, "ired": 1201, "Ġbutter": 1202, "Ġz": 1203, "imes": 1204, "ĠTh": 1205, "orn": 1206, "Ġsweet": 1207, "Ġpain": 1208, "Ġkid": 1209, "Ġgrabbed": 1210, "Can": 1211, "Ġpu": 1212, "\"I": 1213, "isy": 1214, "Ġonly": 1215, "Ġmon": 1216, "Ġlea": 1217, "Ġfell": 1218, "Ġba": 1219, "Ġru": 1220, "Ġcont": 1221, "Ġbirds": 1222, "Ġjumped": 1223, "Ġglad": 1224, "Ġbit": 1225, "Ġsand": 1226, "itchen": 1227, "Ġkitchen": 1228, "Ġhelped": 1229, "Ġsees": 1230, "Ġfire": 1231, "Ġper": 1232, "Ġflo": 1233, "Ġstop": 1234, "ĠSarah": 1235, "Ġhappened": 1236, "Ġsing": 1237, "Ġgrass": 1238, "Ġbunny": 1239, "Ġshouted": 1240, "Ġstory": 1241, "ĠLet": 1242, "Ġtri": 1243, "nts": 1244, "Ġdr": 1245, "air": 1246, "After": 1247, "ĠJane": 1248, "ppy": 1249, "Ġreached": 1250, "Ġbeh": 1251, "Ġrealized": 1252, "Ġyummy": 1253, "Ġbrother": 1254, "\"O": 1255, "ĠDo": 1256, "Ġlady": 1257, "Ġmum": 1258, "Ġhaving": 1259, "Ġprin": 1260, "ins": 1261, "Ġfavor": 1262, "ĠAs": 1263, "'re": 1264, "Ġmess": 1265, "Ġfavorite": 1266, "Ġdraw": 1267, "Ġcre": 1268, "Ġrest": 1269, "Ġthrough": 1270, "Ġgame": 1271, "Ġhat": 1272, "Ġate": 1273, "Ġless": 1274, "Ġunderst": 1275, "akes": 1276, "ĠEveryone": 1277, "Ġsoft": 1278, "Ġpare": 1279, "zy": 1280, "Ġthing": 1281, "Ġreally": 1282, "ather": 1283, "Ġready": 1284, "Mommy": 1285, "Ġbegan": 1286, "where": 1287, "Ġpretend": 1288, "ĠCan": 1289, "Ġworld": 1290, "ĠJoe": 1291, "ĠThat": 1292, "Ġlooks": 1293, "ken": 1294, "Ġhimself": 1295, "Ġmagic": 1296, "fully": 1297, "Ġpap": 1298, "Ġdone": 1299, "Ġbutterf": 1300, "Ġmaking": 1301, "Ġcut": 1302, "Ġcoming": 1303, "Ġduck": 1304, "ater": 1305, "Ġpond": 1306, "Ġkids": 1307, "Ġwaved": 1308, "Ġwhy": 1309, "Ġprom": 1310, "Ġtired": 1311, "Ġfro": 1312, "Ġfix": 1313, "olly": 1314, "ster": 1315, "Ġmouse": 1316, "Ġworry": 1317, "Ġpart": 1318, "Ġcars": 1319, "Ġste": 1320, "Ġdelic": 1321, "Ġname": 1322, "Ġflower": 1323, "ign": 1324, "Ġfill": 1325, "Wow": 1326, "aisy": 1327, "Ġtouch": 1328, "eddy": 1329, "Ġfunny": 1330, "Ġcatch": 1331, "bo": 1332, "Ġused": 1333, "sh": 1334, "Ġseen": 1335, "Ġhair": 1336, "ĠJohn": 1337, "Ġtast": 1338, "ient": 1339, "Ġtop": 1340, "Ġparents": 1341, "rel": 1342, "Ġanother": 1343, "Ġhold": 1344, "Ġhopped": 1345, "Ġcried": 1346, "iver": 1347, "uff": 1348, "oney": 1349, "mer": 1350, "Ġdoing": 1351, "Ġcool": 1352, "Ġblocks": 1353, "hy": 1354, "Ġpus": 1355, "Ġsurprise": 1356, "âĤ¬ĊĊ": 1357, "Ġlight": 1358, "Ġgreen": 1359, "As": 1360, "Ġthank": 1361, "Ġlesson": 1362, "Timmy": 1363, "ation": 1364, "Ġread": 1365, "Ġfloor": 1366, "Ġdin": 1367, "Ġgi": 1368, "Ġwood": 1369, "Ġfull": 1370, "Don": 1371, "Ġdri": 1372, "ards": 1373, "Ġtrees": 1374, "Ġrunning": 1375, "Ġwindow": 1376, "Ġworked": 1377, "Ġyears": 1378, "Ġcra": 1379, "Ġdro": 1380, "Ġ-": 1381, "Ġdark": 1382, "Ġbehind": 1383, "Ġlikes": 1384, "Ġsmell": 1385, "Ġspot": 1386, "Ġwished": 1387, "Ġpaper": 1388, "ued": 1389, "Ġyellow": 1390, "andy": 1391, "Ġbow": 1392, "ul": 1393, "ren": 1394, "Ġswim": 1395, "John": 1396, "Ġhappily": 1397, "Ġbag": 1398, "Ġsat": 1399, "Ġsho": 1400, "Sam": 1401, "Ġsleep": 1402, "aring": 1403, "Ġsurprised": 1404, "ely": 1405, "Ġfrog": 1406, "Ġbutterfly": 1407, "ike": 1408, "Ġswing": 1409, "Ġset": 1410, "Ġcarefully": 1411, "ĠIn": 1412, "Ġslow": 1413, "Ġremembered": 1414, "Ġlost": 1415, "Ġcold": 1416, "Ġheld": 1417, "ello": 1418, "Hello": 1419, "Ġhole": 1420, "Ġice": 1421, "Ġlaugh": 1422, "rew": 1423, "Ġneeded": 1424, "Ġbuy": 1425, "Ġperf": 1426, "ĠĊ": 1427, "Ġleft": 1428, "ons": 1429, "Ġmove": 1430, "reed": 1431, "cess": 1432, "Ġanything": 1433, "Ġdream": 1434, "Ġtall": 1435, "Ġenjoyed": 1436, "Ġwrong": 1437, "Ġarri": 1438, "uit": 1439, "Ġhear": 1440, "Ġfair": 1441, "Ġair": 1442, "Ġfollowed": 1443, "inally": 1444, "Ġbooks": 1445, "ross": 1446, "Ġel": 1447, "Ġchildren": 1448, "Ġhun": 1449, "Ġdelicious": 1450, "Ġtable": 1451, "Ġfinished": 1452, "!Ã¢": 1453, "Ġcontin": 1454, "Ġfriendly": 1455, "Ġdir": 1456, "Ġhot": 1457, "Ġsnow": 1458, "Ġherself": 1459, "ds": 1460, "lf": 1461, "ĠAfter": 1462, "Ġhill": 1463, "ens": 1464, "Ġunderstand": 1465, "Ġplease": 1466, "Ġclose": 1467, "ined": 1468, "Ġhid": 1469, "Ġarrived": 1470, "Ġcast": 1471, "Ġelse": 1472, "Ġarm": 1473, "Ġbaby": 1474, "Ġwonderful": 1475, "Ġmight": 1476, "Ġgent": 1477, "Ġtight": 1478, "Ġforgot": 1479, "sp": 1480, "ield": 1481, "Ġbug": 1482, "ĠSally": 1483, "Ġcolors": 1484, "Ġrel": 1485, "Ġbuild": 1486, "Ġbroken": 1487, "ĠDaisy": 1488, "Ġable": 1489, ".Ã¢": 1490, "Ġgone": 1491, "av": 1492, "ner": 1493, "ĠNow": 1494, "ĠBenny": 1495, "ĠLila": 1496, "Ġyes": 1497, "atter": 1498, "Ġsong": 1499, "Then": 1500, "ich": 1501, "Ġwall": 1502, "Ġsquir": 1503, "Ġfilled": 1504, "Ġagreed": 1505, "Ġsomeone": 1506, "Jack": 1507, "Ġcontinued": 1508, "room": 1509, "Ġcreat": 1510, "asure": 1511, "'ll": 1512, "Ġcount": 1513, "Ġwants": 1514, "\"Look": 1515, "Ġsquirrel": 1516, "ĠEm": 1517, "Ġpink": 1518, "Ġleaves": 1519, "ask": 1520, "Ġenough": 1521, "ey": 1522, "ĠThere": 1523, "ĠTommy": 1524, "Ġlion": 1525, "From": 1526, "ama": 1527, "ee": 1528, "Ġmorning": 1529, "Ġvis": 1530, "Ġmoment": 1531, "Ġfinally": 1532, "Ġgetting": 1533, "Ġstayed": 1534, "Ġcookies": 1535, "Ġbreak": 1536, "app": 1537, "Ġpoin": 1538, "ance": 1539, "Ġbeach": 1540, "ĠK": 1541, "Ġfew": 1542, "ĠMaybe": 1543, "Ġscary": 1544, "Ġfight": 1545, "Ġsometimes": 1546, "row": 1547, "ash": 1548, "ries": 1549, "ced": 1550, "red": 1551, "Ġturned": 1552, "Ġhungry": 1553, "Ġfall": 1554, "Ġdinner": 1555, "gon": 1556, "Ġmother": 1557, "Ġgrandma": 1558, "Ġju": 1559, "Ġwet": 1560, "ĠWhat": 1561, "Ġamazing": 1562, "apped": 1563, "Ġtrying": 1564, "His": 1565, "Ġcream": 1566, "Ġdaddy": 1567, "Ġperfect": 1568, "Ġpi": 1569, "Ġmakes": 1570, "Ġcastle": 1571, "Ġothers": 1572, "At": 1573, "Ġclimbed": 1574, "key": 1575, "oup": 1576, "ĠThis": 1577, "This": 1578, "Ġpictures": 1579, "icy": 1580, "Ġcomp": 1581, "amp": 1582, "Ġtalk": 1583, "Ġmet": 1584, "Ġmus": 1585, "Ġwhite": 1586, "oom": 1587, "Ġlistened": 1588, "Ġsmiles": 1589, "man": 1590, "Ġfur": 1591, "Ġballoon": 1592, "Ġclot": 1593, "oring": 1594, "ĠGra": 1595, "Ġalone": 1596, "Ġclothes": 1597, "Ġpol": 1598, "ĠBilly": 1599, "lc": 1600, "Ġtail": 1601, "Ġjoy": 1602, "ated": 1603, "rot": 1604, "Ġpuppy": 1605, "Ġspl": 1606, "ence": 1607, "Ġmar": 1608, "Ġwasn": 1609, "Ġbrought": 1610, "Ġdeep": 1611, "Ġeverything": 1612, "Ġpet": 1613, "Ġsear": 1614, "Ġstrange": 1615, "ister": 1616, "ctor": 1617, "Ġspark": 1618, "der": 1619, "Ġsit": 1620, "Ġwoods": 1621, "Ġgrow": 1622, "\".": 1623, "Ġpulled": 1624, "ling": 1625, "Ġsail": 1626, "ĠTo": 1627, "ott": 1628, "Ġwon": 1629, "Ġplan": 1630, "Ġride": 1631, "eter": 1632, "Ġasks": 1633, "Ġfox": 1634, "Ġpie": 1635, "Ġdanger": 1636, "Ġtreat": 1637, "uffy": 1638, "Ġroll": 1639, "Ġvisit": 1640, "ĠAmy": 1641, "os": 1642, "Ġleave": 1643, "med": 1644, "ĠJen": 1645, "Ġpat": 1646, "ucky": 1647, "Ġmusic": 1648, "Ġamazed": 1649, "Ġwaited": 1650, "\"S": 1651, "Ġteddy": 1652, "Ġhide": 1653, "me": 1654, "ang": 1655, "ever": 1656, "Ġtowards": 1657, "ĠO": 1658, "Max": 1659, "ower": 1660, "Ġfield": 1661, "Ġland": 1662, "Ġpre": 1663, "\"Yes": 1664, "Ġflying": 1665, "zz": 1666, "Ġpen": 1667, "Ġsilly": 1668, "Ġshared": 1669, "Ġruns": 1670, "ained": 1671, "Ġowner": 1672, "Ġcloud": 1673, "ape": 1674, "Ġliving": 1675, "ugg": 1676, "Ġqui": 1677, "ames": 1678, "Ġjob": 1679, "Ġpromised": 1680, "Ġbelie": 1681, "igg": 1682, "Ġmoral": 1683, "Ġgu": 1684, "Ġside": 1685, "gs": 1686, "orm": 1687, "Ġlake": 1688, "ol": 1689, "Ġpa": 1690, "Ġthinks": 1691, "Maybe": 1692, "cket": 1693, "ope": 1694, "Ġpaint": 1695, "Ġsec": 1696, "thy": 1697, "Ġsister": 1698, "ually": 1699, "Ġparty": 1700, "Ġquiet": 1701, "ises": 1702, "Ġmust": 1703, "cle": 1704, "Ġrace": 1705, "ĠJim": 1706, "avy": 1707, "Ġmoney": 1708, "Ġwear": 1709, "sw": 1710, "Ġworried": 1711, "ased": 1712, "up": 1713, "Ġansw": 1714, "unch": 1715, "Ġslowly": 1716, "Ġpot": 1717, "eces": 1718, "Ġcolorful": 1719, "Ġfaster": 1720, "Ġgrate": 1721, "Ġow": 1722, "Ġdance": 1723, "Ġpieces": 1724, "Ġbran": 1725, "Ġbott": 1726, "Ġwelc": 1727, "Ġbroke": 1728, "Ġcup": 1729, "ix": 1730, "Ġgrateful": 1731, "Ġgif": 1732, "Ġsuch": 1733, "Ġbigger": 1734, "ze": 1735, "Ġtrain": 1736, "ph": 1737, "fort": 1738, "Ġsnack": 1739, "Ġcho": 1740, "Ġreach": 1741, "Ġblank": 1742, "ĠAll": 1743, "Ġmonster": 1744, "Ġpro": 1745, "\"No": 1746, "Ġplant": 1747, "Ġjoin": 1748, "Ġriver": 1749, "Ġblack": 1750, "less": 1751, "\"Let": 1752, "Ġwin": 1753, "Ġcandy": 1754, "ire": 1755, "\"Wow": 1756, "Ġblanket": 1757, "Ġscream": 1758, "Ġtreasure": 1759, "Ġmagical": 1760, "ear": 1761, "Ġve": 1762, "Ġprincess": 1763, "Ġele": 1764, "Ġsmart": 1765, "Ġbike": 1766, "Ġdangerous": 1767, "Ġsign": 1768, "Ġdragon": 1769, "Ġacross": 1770, "Ġmonkey": 1771, "Ġbar": 1772, "Ġeverywhere": 1773, "Ġmost": 1774, "ĠDaddy": 1775, "Ġhelping": 1776, "Ġnap": 1777, "Ġfarmer": 1778, "outh": 1779, "Ġem": 1780, "Ġmouth": 1781, "Why": 1782, "set": 1783, "Ġdisapp": 1784, "Ġwords": 1785, "Ġje": 1786, "ipped": 1787, "Ġstre": 1788, "ored": 1789, "Hi": 1790, "Ġtower": 1791, "ming": 1792, "eared": 1793, "Ġthrew": 1794, "Ġstepped": 1795, "Ġheavy": 1796, "Ġdolls": 1797, "Ġpass": 1798, "Ġbite": 1799, "de": 1800, "Ġbowl": 1801, "Ġdirty": 1802, "Ġtwins": 1803, "Ġsame": 1804, "Ġcrying": 1805, "Ġbee": 1806, "Ġspr": 1807, "ere": 1808, "Ġdoctor": 1809, "ident": 1810, "ĠMolly": 1811, "Ġacc": 1812, "Ġbelieve": 1813, "Ġwouldn": 1814, "Ġbath": 1815, "Ġheal": 1816, "ĠFl": 1817, "chool": 1818, "Ġhig": 1819, "bble": 1820, "Ġclosed": 1821, "Ġcarrot": 1822, "Ġheart": 1823, "Mia": 1824, "Ġstuck": 1825, "cked": 1826, "Ġcour": 1827, "Ġfruit": 1828, "Ġbuck": 1829, "Ġmin": 1830, "Ġatt": 1831, "Ġteac": 1832, "Ġschool": 1833, "ĠMr": 1834, "Ġbrown": 1835, "Ġhoped": 1836, "ĠJill": 1837, "asket": 1838, "iting": 1839, "Ġsuddenly": 1840, "Ġbasket": 1841, "Ġfeels": 1842, "Ġmix": 1843, "?Ã¢": 1844, "Ġchair": 1845, "Ġeating": 1846, "Ġtown": 1847, "Ġcourse": 1848, "Ġcray": 1849, "Ġclapped": 1850, "Ġcoll": 1851, "Ġgentle": 1852, "Ġfairy": 1853, "pping": 1854, "Ġbutt": 1855, "Ġpack": 1856, "ventually": 1857, "Ġstand": 1858, "ier": 1859, "Ġdrove": 1860, "ors": 1861, "Ġpushed": 1862, "br": 1863, "issed": 1864, "Ġwelcome": 1865, "ts": 1866, "Ġswings": 1867, "Ġwithout": 1868, "Ġhigher": 1869, "Ġtoday": 1870, "Ġneigh": 1871, "Ġpocket": 1872, "orrow": 1873, "Ġhit": 1874, "\"What": 1875, "Ġteacher": 1876, "Ġneighb": 1877, "Ġpers": 1878, "ord": 1879, "Ġsmo": 1880, "Ġgames": 1881, "ourn": 1882, "Ġpiece": 1883, "ract": 1884, "Ġcheered": 1885, "Ġwings": 1886, "Ġforget": 1887, "Ġben": 1888, "Ġexplained": 1889, "Ġjourn": 1890, "Ġyard": 1891, "Ġlonger": 1892, "Ġfree": 1893, "Finally": 1894, "ible": 1895, "Ġcorn": 1896, "Ġaccident": 1897, "ho": 1898, "ead": 1899, "Ġdry": 1900, "Ġalong": 1901, "umb": 1902, "ĠMary": 1903, "ment": 1904, "cy": 1905, "Ġnoises": 1906, "itting": 1907, "Ġneck": 1908, "Ġsang": 1909, "Ġinst": 1910, "Ġlate": 1911, "Ġhappen": 1912, "Ġthrow": 1913, "Ġhugs": 1914, "Lila": 1915, "Ġyoung": 1916, "Ġturns": 1917, "Ġstories": 1918, "vel": 1919, "Ġshoes": 1920, "phant": 1921, "Ġlon": 1922, "\"Can": 1923, "Ġmiss": 1924, "Ġadventures": 1925, "Ġsinging": 1926, "Ġtrou": 1927, "Ġwell": 1928, "Ġsea": 1929, "Ġlunch": 1930, "Ġapple": 1931, "Ġupset": 1932, "Ġlonely": 1933, "Ġkey": 1934, ".Ċ": 1935, "ches": 1936, "Ġbelong": 1937, "bby": 1938, "oun": 1939, "Ġdist": 1940, "Ġsecret": 1941, "Ġstreet": 1942, "Ġplac": 1943, "Ġelephant": 1944, "Ġtom": 1945, "Ġwish": 1946, "Ġfence": 1947, "Ġmine": 1948, "ountain": 1949, "Ġmat": 1950, "ek": 1951, "Ġshap": 1952, "Ġshook": 1953, "Ġexploring": 1954, "Ġmoved": 1955, "Ġpurp": 1956, "Ġyear": 1957, "aughty": 1958, "Ġnearby": 1959, "Ġnaughty": 1960, "Ġstar": 1961, "Ġsoup": 1962, "Ġshop": 1963, "Ġwise": 1964, "ĠGrandma": 1965, "Ġstars": 1966, "Ġowl": 1967, "Ġbring": 1968, "fused": 1969, "Ġjar": 1970, "bow": 1971, "Do": 1972, "ocked": 1973, "Ġinv": 1974, "Ġexp": 1975, "Ġwhe": 1976, "yard": 1977, "Ġcaught": 1978, "Ġsu": 1979, "ward": 1980, "Ġbackyard": 1981, "Ġseemed": 1982, "ail": 1983, "Ġes": 1984, "Ġrelie": 1985, "Ġdropped": 1986, "Ġph": 1987, "Ġrocks": 1988, "ĠEmma": 1989, "aughter": 1990, "llo": 1991, "ush": 1992, "Ġdrink": 1993, "Ġbucket": 1994, "Ġdes": 1995, "Ġca": 1996, "adow": 1997, "ces": 1998, "Ġpurple": 1999, "Ġswam": 2000, "Ġfarm": 2001, "Ġresp": 2002, "Ġtaking": 2003, "Ġmail": 2004, "Ġorange": 2005, "Ġthough": 2006, "ions": 2007, "And": 2008, "Ġshapes": 2009, "Ġpast": 2010, "col": 2011, "Ġcow": 2012, "Ġstu": 2013, "ĠThank": 2014, "Ġwoke": 2015, "Ġbench": 2016, "Ġsounds": 2017, "Ġaf": 2018, "ung": 2019, "ity": 2020, "sy": 2021, "Ġwondered": 2022, "Ġbusy": 2023, "Ġfit": 2024, "Ġtiny": 2025, "Ġob": 2026, "Ġnose": 2027, "Ġsitting": 2028, "Ġnest": 2029, "Ġrainbow": 2030, "ese": 2031, "Ġdaughter": 2032, "Ġtakes": 2033, "Ġmark": 2034, "Ġmad": 2035, "Okay": 2036, "fish": 2037, "Ġcou": 2038, "Ġkite": 2039, "to": 2040, "read": 2041, "Ġholding": 2042, "weet": 2043, "Ġnothing": 2044, "Ġcomes": 2045, "Ġjuice": 2046, "Ġarms": 2047, "thday": 2048, "Ġpig": 2049, "Ġcoat": 2050, "og": 2051, "ĠFluffy": 2052, "ining": 2053, "Oh": 2054, "Ġcir": 2055, "ĠInside": 2056, "Ġbranch": 2057, "raid": 2058, "Ġrelieved": 2059, "pper": 2060, "Ġafraid": 2061, "cing": 2062, "ose": 2063, "idge": 2064, "Ġdriver": 2065, "Ġmil": 2066, "Ġforever": 2067, "vered": 2068, "Ġspoon": 2069, "Ġcute": 2070, "Ġcarry": 2071, "Ġgift": 2072, "Ġsick": 2073, "Ġboun": 2074, "Ġlift": 2075, "sting": 2076, "Ġpeace": 2077, "Ġpromise": 2078, "\"It": 2079, "ours": 2080, "ĠFinally": 2081, "Ġhuge": 2082, "Ġact": 2083, "Ġtou": 2084, "Ġtouched": 2085, "Ġpatient": 2086, "unt": 2087, "Ġking": 2088, "Ġround": 2089, "cer": 2090, "sc": 2091, "Ġhello": 2092, "ĠCome": 2093, "Ġbirthday": 2094, "Ġfing": 2095, "Ġletter": 2096, "Ġgrab": 2097, "Ġintere": 2098, "Ġexciting": 2099, "let": 2100, "Ġsunny": 2101, "Ġcheese": 2102, "eth": 2103, "Ġonto": 2104, "Ġlaughing": 2105, "Ġdays": 2106, "board": 2107, "\"Thank": 2108, "\"Hello": 2109, "Ġjourney": 2110, "Ġgigg": 2111, "Ġband": 2112, "Ġcreature": 2113, "Ġdisco": 2114, "ĠMama": 2115, "ittens": 2116, "Ġbread": 2117, "Hey": 2118, "arp": 2119, "Ġret": 2120, "Ġimag": 2121, "ped": 2122, "shine": 2123, "Ġlife": 2124, "Ġkick": 2125, "Ġbush": 2126, "gged": 2127, "Ġhope": 2128, "Ġpower": 2129, "Ġcraw": 2130, "Ġshell": 2131, "Ġcozy": 2132, "Ġswimming": 2133, "Tommy": 2134, "Ġinc": 2135, "Ġbottle": 2136, "Ġmist": 2137, "Ġsharp": 2138, "Ġwra": 2139, "gg": 2140, "Ġsuc": 2141, "Ġcomfort": 2142, "Ġinstead": 2143, "Ġwhist": 2144, "Ġmilk": 2145, "Ġwatching": 2146, "Ġreturn": 2147, "Ġear": 2148, "ness": 2149, "Ġspin": 2150, "alm": 2151, "Ġaccidentally": 2152, "Ġeas": 2153, "Ġsunshine": 2154, "ten": 2155, "ĠSoon": 2156, "Ġcave": 2157, "pa": 2158, "ĠSammy": 2159, "Ġspo": 2160, "Ġputs": 2161, "Ġlucky": 2162, "Ġtalked": 2163, "Ġhoney": 2164, "Ġpudd": 2165, "Ġpointed": 2166, "Ġgives": 2167, "Ġcollect": 2168, "Ġgather": 2169, "itch": 2170, "Ġroad": 2171, "Ġent": 2172, "Later": 2173, "Ġsmiling": 2174, "Ġbought": 2175, "Ġanyone": 2176, "Ġhor": 2177, "Ġsearched": 2178, "Ġlater": 2179, "Ġce": 2180, "Ġfan": 2181, "Ġsandw": 2182, "ball": 2183, "round": 2184, "itten": 2185, "Ġapples": 2186, "els": 2187, "blem": 2188, "irt": 2189, "Ġproblem": 2190, "Ġmeet": 2191, "ize": 2192, "Bob": 2193, "Ġmach": 2194, "Lucy": 2195, "Ġwom": 2196, "Ġloves": 2197, "Ġinteresting": 2198, "Good": 2199, "âĤ¬ÅĵI": 2200, "Ġwoman": 2201, "\"OK": 2202, "Ġplane": 2203, "ĠTweet": 2204, "Ġkiss": 2205, "Ġpres": 2206, "Ġhealthy": 2207, "eb": 2208, "Ġpile": 2209, "Ġtasty": 2210, "Ġducks": 2211, "ub": 2212, "Ġvill": 2213, "ĠJimmy": 2214, "ove": 2215, "Ġwide": 2216, "ont": 2217, "amed": 2218, "aur": 2219, "Ġadm": 2220, "Ġeag": 2221, "Ġspid": 2222, "Ġclever": 2223, "Ġcrayons": 2224, "Ġprot": 2225, "Ġmatter": 2226, "Ġtrouble": 2227, "erly": 2228, "ndpa": 2229, "Ġzoom": 2230, "Ġclouds": 2231, "owed": 2232, "ĠWith": 2233, "Ġstorm": 2234, "Ġperson": 2235, "Ġpath": 2236, "cks": 2237, "Ġpill": 2238, "Ġfeather": 2239, "Ġrope": 2240, "Ġpop": 2241, "Ġshining": 2242, "Ġprotect": 2243, "Ġsmelled": 2244, "Ġfront": 2245, "Ġhon": 2246, "Ġbutton": 2247, "Ġpract": 2248, "Ġspotted": 2249, "\"W": 2250, "Ġscreamed": 2251, "Ġzoo": 2252, "Ġminut": 2253, "ĠEll": 2254, "Ġpresent": 2255, "Come": 2256, "Ġap": 2257, "Ġmud": 2258, "Ġval": 2259, "Ġrespect": 2260, "Ġsaf": 2261, "Ġdanced": 2262, "Ġcheer": 2263, "Ġorgan": 2264, "Jim": 2265, "Ġpar": 2266, "Ġquest": 2267, "ond": 2268, "Ġappeared": 2269, "Ġwhich": 2270, "Ġpuzz": 2271, "Ġseat": 2272, "Molly": 2273, "Ġteach": 2274, "Ġmyster": 2275, "Ġsnowman": 2276, "Just": 2277, "\"That": 2278, "isa": 2279, "Ġsnake": 2280, "Ġthin": 2281, "ert": 2282, "ale": 2283, "Ġwild": 2284, "Ġasleep": 2285, "Ġlovely": 2286, "Ġsur": 2287, "Ġanswer": 2288, "epend": 2289, "Ġwearing": 2290, "Ġgently": 2291, "Ġneighbor": 2292, "oose": 2293, "Ġbark": 2294, "Mum": 2295, "Ġhorse": 2296, "Ġgiant": 2297, "Ġplaces": 2298, "Ġgoes": 2299, "Ġwhole": 2300, "ometimes": 2301, "Ġsearch": 2302, "\".ĊĊ": 2303, "Ġsplas": 2304, "Every": 2305, "Ġcorner": 2306, "Ġimpress": 2307, "ular": 2308, "Ġdirt": 2309, "Ġmed": 2310, "Ġshr": 2311, "een": 2312, "Ġtries": 2313, "Ġtrip": 2314, "Ġconfused": 2315, "ĠEmily": 2316, "Ġlive": 2317, "Ġmind": 2318, "Ġdi": 2319, "ato": 2320, "la": 2321, "Ġrolled": 2322, "Ġcard": 2323, "Ġslid": 2324, "Ġtasted": 2325, "nic": 2326, "cean": 2327, "Ġash": 2328, "Ġocean": 2329, "Ġsupp": 2330, "Ġforgive": 2331, "Ġpicnic": 2332, "Ġrude": 2333, "Ġmachine": 2334, "ex": 2335, "Ġspent": 2336, "ĠGo": 2337, "Ġdrive": 2338, "Ġteeth": 2339, "Ġser": 2340, "In": 2341, "ssed": 2342, "itty": 2343, "Ġphone": 2344, "Sure": 2345, "ĠHow": 2346, "Ġoven": 2347, "Ġpan": 2348, "Ġpour": 2349, "Ġlast": 2350, "Ġcalm": 2351, "Ġpretended": 2352, "Ġdelight": 2353, "Ġcookie": 2354, "Ġfurry": 2355, "Ġspider": 2356, "izz": 2357, "Ġfeet": 2358, "Ġfaces": 2359, "unk": 2360, "Ġlay": 2361, "Ġworm": 2362, "Ġring": 2363, "ĠCh": 2364, "Ġrec": 2365, "umber": 2366, "Ġhelpful": 2367, "Ġlad": 2368, "ĠMittens": 2369, "Ġeventually": 2370, "Ġwip": 2371, "Ġchick": 2372, "Ġwave": 2373, "Ġmountain": 2374, "Ġsal": 2375, "Ġban": 2376, "Ġemb": 2377, "Ġtalking": 2378, "ones": 2379, "Ġrob": 2380, "Ġfold": 2381, "Ġshy": 2382, "Ġcart": 2383, "Ġtomorrow": 2384, "Ġsel": 2385, "Ġchocol": 2386, "Ġtid": 2387, "ĠJenny": 2388, "Ġspread": 2389, "Ġvillage": 2390, "arge": 2391, "ife": 2392, "Ġremind": 2393, "Ġign": 2394, "Ġbubble": 2395, "Ġtun": 2396, "Ġcoin": 2397, "Ġfoot": 2398, "Ġcouch": 2399, "Ġwrite": 2400, "Ġladder": 2401, "Ġbuilding": 2402, "Ġpush": 2403, "Ġfighting": 2404, "Ġsmooth": 2405, "Ġtreats": 2406, "hile": 2407, "Ġwore": 2408, "Ġchased": 2409, "Ġtool": 2410, "ighed": 2411, "Ġblew": 2412, "Ġstret": 2413, "lex": 2414, "My": 2415, "arra": 2416, "Ġbugs": 2417, "Ġembarra": 2418, "Ġhiding": 2419, "Ġpool": 2420, "Ġcross": 2421, "Ġwaiting": 2422, "oph": 2423, "Ġknee": 2424, "\"Maybe": 2425, "Ġrobot": 2426, "Ġneckl": 2427, "Ġstep": 2428, "Ġpuddle": 2429, "mo": 2430, "Ġfinish": 2431, "Ġshelf": 2432, "Ġbell": 2433, "Ġcoo": 2434, "not": 2435, "als": 2436, "Ġsongs": 2437, "Ġstir": 2438, "ator": 2439, "Ġwhenever": 2440, "Soon": 2441, "Ġselfish": 2442, "Ġant": 2443, "Ġmaybe": 2444, "top": 2445, "Ġcannot": 2446, "Ġstring": 2447, "Of": 2448, "Ġstra": 2449, "Ġchocolate": 2450, "ult": 2451, "Ġsol": 2452, "Ġtaste": 2453, "Ġspe": 2454, "Ġrep": 2455, "\"Mom": 2456, "\"Oh": 2457, "Ġhum": 2458, "Ġple": 2459, "Ġlarge": 2460, "Ġpaw": 2461, "Ġnet": 2462, "Mama": 2463, "ĠJake": 2464, "box": 2465, "Ġsack": 2466, "Ġleaf": 2467, "Ġscar": 2468, "Ġfixed": 2469, "lebr": 2470, "Ġbarked": 2471, "Ġtidy": 2472, "umpy": 2473, "Ġbanan": 2474, "Ġwash": 2475, "ĠEverywhere": 2476, "ĠSometimes": 2477, "Ġspray": 2478, "Ġstone": 2479, "old": 2480, "ĠJust": 2481, "hnn": 2482, "Ġcelebr": 2483, "Ġgen": 2484, "Ġcloth": 2485, "Please": 2486, "Ġcrab": 2487, "ĠLe": 2488, "Dad": 2489, "Ġpeaceful": 2490, "Ġcolour": 2491, "ungle": 2492, "ĠPlease": 2493, "hnny": 2494, "Ġhel": 2495, "ird": 2496, "oin": 2497, "lice": 2498, "Ġmissed": 2499, "Ġdeter": 2500, "Ġjungle": 2501, "Ġ'": 2502, "iger": 2503, "arm": 2504, "\"We": 2505, "Now": 2506, "Ġlanded": 2507, "Ġdeterm": 2508, "Ġforward": 2509, "Ġembarrassed": 2510, "Ġnecklace": 2511, "Sarah": 2512, "Ġhonest": 2513, "Ġjumping": 2514, "airs": 2515, "elly": 2516, "Ġbat": 2517, "ĠTheir": 2518, "Ġdecor": 2519, "dge": 2520, "Ġtrust": 2521, "Ġhears": 2522, "Ġmoon": 2523, "orry": 2524, "Ġsticks": 2525, "ĠTV": 2526, "Ġshirt": 2527, "Ġcreative": 2528, "Ġsharing": 2529, "aking": 2530, "Ġtea": 2531, "most": 2532, "Ġknocked": 2533, "Ġcarrots": 2534, "Ġdisappoin": 2535, "Ġsuccess": 2536, "Ġmeadow": 2537, "ying": 2538, "getable": 2539, "\"Sure": 2540, "Ġwhis": 2541, "Ġstood": 2542, "Ġgener": 2543, "Ġvegetable": 2544, "Ġbal": 2545, "ĠDon": 2546, "Ġmeant": 2547, "Ġlegs": 2548, "Ġtightly": 2549, "Ġbreath": 2550, "Ġplate": 2551, "Ġalmost": 2552, "Ġashamed": 2553, "ned": 2554, "Ġemp": 2555, "Ġsour": 2556, "Ġgray": 2557, "dle": 2558, "Ġgrew": 2559, "Ġtells": 2560, "Ġempty": 2561, "ĠSome": 2562, "Ġpillow": 2563, "ground": 2564, "ony": 2565, "Ġgas": 2566, "Ġsplash": 2567, "Ġwhistle": 2568, "ĠOn": 2569, "ian": 2570, "Ġunderstood": 2571, "Be": 2572, "\"You": 2573, "Ġsheep": 2574, "Ġber": 2575, "Ġcarried": 2576, "den": 2577, "ĠLisa": 2578, "Ġyelled": 2579, "ĠWhy": 2580, "To": 2581, "Ġlem": 2582, "ĠTeddy": 2583, "ustr": 2584, "arl": 2585, "ĠAnn": 2586, "Ġnods": 2587, "erp": 2588, "vous": 2589, "Ġsave": 2590, "Ġpolice": 2591, "Ġdisappointed": 2592, "Ġsnacks": 2593, "Ġhours": 2594, "Ġnut": 2595, "ital": 2596, "Ġwhisp": 2597, "Ġjew": 2598, "Ġthese": 2599, "hin": 2600, "ork": 2601, "Ġhosp": 2602, "ets": 2603, "Ġsparkly": 2604, "Ġgold": 2605, "Ġhospital": 2606, "Ġkitten": 2607, "ĠEven": 2608, "ĠMum": 2609, "Ġship": 2610, "Ġpay": 2611, "ina": 2612, "obby": 2613, "ĠTogether": 2614, "Ġbored": 2615, "urse": 2616, "Ġline": 2617, "Ġgenerous": 2618, "Ġfrustr": 2619, "Ġtest": 2620, "Ġhidden": 2621, "Ġtaught": 2622, "Ġstanding": 2623, "Ġrad": 2624, "Ġscarf": 2625, "iff": 2626, "Ġchew": 2627, "Ġreturned": 2628, "Ġminutes": 2629, "Ġpizz": 2630, "Ġknowing": 2631, "Ġgroup": 2632, "Ġhur": 2633, "Ġplants": 2634, "Ġeasy": 2635, "Ġblow": 2636, "Ġbedroom": 2637, "Ġpolite": 2638, "Ġmysterious": 2639, "Ġwaves": 2640, "Ġglass": 2641, "Ġsighed": 2642, "Ġshore": 2643, "Ġpri": 2644, "Ġseed": 2645, "Ġwolf": 2646, "usie": 2647, "Ġseek": 2648, "Ġdetermined": 2649, "ĠPeter": 2650, "kin": 2651, "Ġpuzzle": 2652, "Ġpowerful": 2653, "Ġthankful": 2654, "Jane": 2655, "fl": 2656, "Ġclass": 2657, "Ġner": 2658, "ĠBe": 2659, "Ġpir": 2660, "Ġsandwich": 2661, "Ġfig": 2662, "Ġsleepy": 2663, "Ġprince": 2664, "Ġpassed": 2665, "Ġdrew": 2666, "ĠSt": 2667, "'d": 2668, "Ġfinger": 2669, "Ġjelly": 2670, "Ġpizza": 2671, "Ġnervous": 2672, "Ġfrustrated": 2673, "Ġspicy": 2674, "Ġgun": 2675, "Ġspoil": 2676, "Ġmatch": 2677, "Ġfancy": 2678, "Ġmessy": 2679, "osaur": 2680, "work": 2681, "Ġgate": 2682, "There": 2683, "Ġbridge": 2684, "Ġlock": 2685, "Ġkissed": 2686, "Ġtick": 2687, "aul": 2688, "Ġcloset": 2689, "Ġfear": 2690, "Ġreg": 2691, "af": 2692, "Ġfeed": 2693, "Ġmot": 2694, "Ġsold": 2695, "Ġwis": 2696, "Ġgathered": 2697, "oop": 2698, "Ġav": 2699, "Ġexcite": 2700, "Ġpoor": 2701, "Ġcirc": 2702, "ote": 2703, "Ġhang": 2704, "\"Hey": 2705, "Ġcaterp": 2706, "Ġcaterpill": 2707, "Ġesc": 2708, "Ġflag": 2709, "Ġpin": 2710, "Ġgrumpy": 2711, "Ġvan": 2712, "iddle": 2713, "ella": 2714, "Ġdinosaur": 2715, "Ġyourself": 2716, "ano": 2717, "issors": 2718, "uce": 2719, "Ġanswered": 2720, "Ġcries": 2721, "Are": 2722, "Ġoften": 2723, "itter": 2724, "ĠZ": 2725, "Ġtwirl": 2726, "selves": 2727, "Ġchest": 2728, "sist": 2729, "Ġscissors": 2730, "Ġhopping": 2731, "Ġtears": 2732, "pack": 2733, "gly": 2734, "mb": 2735, "Ġmummy": 2736, "ĠRex": 2737, "Ġugly": 2738, "era": 2739, "Ġburn": 2740, "Ġcand": 2741, "ensive": 2742, "Ġdeer": 2743, "Ġdrop": 2744, "illed": 2745, "Ġfil": 2746, "Ġexcitement": 2747, "izzy": 2748, "Ġcaterpillar": 2749, "Ġlit": 2750, "Ġworking": 2751, "Ġmiddle": 2752, "Ġexpensive": 2753, "Ġscr": 2754, "Ġsaved": 2755, "Ġtaken": 2756, "ĠBr": 2757, "Ġok": 2758, "Ġtrue": 2759, "Ġwagged": 2760, "Ġones": 2761, "Ġpleased": 2762, "Ġcrown": 2763, "\"H": 2764, "Ġspend": 2765, "Ġboring": 2766, "Ġpicks": 2767, "Ġleg": 2768, "que": 2769, "oof": 2770, "ugar": 2771, "Ġvase": 2772, "Ġtent": 2773, "Ġasking": 2774, "body": 2775, "Jimmy": 2776, "OK": 2777, "ual": 2778, "ĠBl": 2779, "Ġbrush": 2780, "Ġtie": 2781, "ates": 2782, "Ġvegetables": 2783, "ecially": 2784, "Ġgiggled": 2785, "Ġboss": 2786, "ete": 2787, "Their": 2788, "Ġmistake": 2789, "Ġcage": 2790, "ser": 2791, "Ġgets": 2792, "light": 2793, "Ġrocket": 2794, "Ġcap": 2795, "Ġmir": 2796, "ĠLeo": 2797, "Ġcomfortable": 2798, "Ġsugar": 2799, "Ġeld": 2800, "Ġstuff": 2801, "Ġpacked": 2802, "ĠJohnny": 2803, "Ġdancing": 2804, "pecially": 2805, "Ġespecially": 2806, "Ġwander": 2807, "Ġclown": 2808, "Ġmedic": 2809, "Ġnumber": 2810, "Ġpress": 2811, "Ġsight": 2812, "Ġknight": 2813, "ushed": 2814, "ggs": 2815, "ots": 2816, "Ġfruits": 2817, "iness": 2818, "Ġeggs": 2819, "Ġlying": 2820, "Ġdrum": 2821, "Ġfake": 2822, "Ġdest": 2823, "ror": 2824, "Ġmedicine": 2825, "Ġwalks": 2826, "Ġdistance": 2827, "aged": 2828, "Ġglue": 2829, "Ġsplashed": 2830, "Ġsweetie": 2831, "Ġbake": 2832, "Ġflut": 2833, "Ġbone": 2834, "Ġdrawing": 2835, "Ġmoving": 2836, "\"Hi": 2837, "Ġdisappeared": 2838, "ha": 2839, "Ġweek": 2840, "ĠOK": 2841, "Ġlead": 2842, "Ġsmelly": 2843, "Ġclap": 2844, "Ġbecome": 2845, "Ġlemon": 2846, "Ġchange": 2847, "Ġpray": 2848, "Ġfeathers": 2849, "Ġmoms": 2850, "Ġlose": 2851, "Ġmov": 2852, "Ġlicked": 2853, "Ġcalling": 2854, "ĠIf": 2855, "Ġtwist": 2856, "Ġdogs": 2857, "Ġbathroom": 2858, "Ġplayground": 2859, "ory": 2860, "yal": 2861, "Ġfis": 2862, "Ġlazy": 2863, "Me": 2864, "enny": 2865, "Ġroar": 2866, "Ġelderly": 2867, "Ġweak": 2868, "Ġincred": 2869, "Ġcri": 2870, "Ġgar": 2871, "Sally": 2872, "Ġbody": 2873, "Ġhorn": 2874, "Ġexam": 2875, "Ġcrack": 2876, "Gra": 2877, ",Ã¢": 2878, "Joe": 2879, "Ġquestions": 2880, "Ġadd": 2881, "Ġwrote": 2882, "Billy": 2883, "Ġyog": 2884, "Ġyours": 2885, "Ġnoisy": 2886, "Ġfather": 2887, "Ġmirror": 2888, "uggest": 2889, "Ġmic": 2890, "Ġnod": 2891, "Ġsuggest": 2892, "elp": 2893, "ating": 2894, "eez": 2895, "Ġfluffy": 2896, "Ġskipped": 2897, "Ġed": 2898, "Ġwheel": 2899, "Ġeager": 2900, "Ġloyal": 2901, "Ġlamp": 2902, "Ġdish": 2903, "Ġext": 2904, "Ġclear": 2905, "Ġfamous": 2906, "land": 2907, "Ġdig": 2908, "Ġstones": 2909, "Ġruined": 2910, "ination": 2911, "ĠAt": 2912, "Ġrich": 2913, "Ġrare": 2914, "Ġord": 2915, "ĠEnd": 2916, "Ġtape": 2917, "Ġsell": 2918, "Ġdrank": 2919, "Ġcontent": 2920, "Ġfigure": 2921, "Ġqueen": 2922, "Ġmarch": 2923, "Ġincredible": 2924, "Ġglow": 2925, "Ġmap": 2926, "Ġshows": 2927, "hip": 2928, "Ġrid": 2929, "ti": 2930, "Ġcheck": 2931, "Ġjuicy": 2932, "Ġsoap": 2933, "Ġcovered": 2934, "Ġind": 2935, "Ġballs": 2936, "Ġsailed": 2937, "imp": 2938, "Ġrelax": 2939, "Ġaw": 2940, "Amy": 2941, "Ġshoot": 2942, "illi": 2943, "Ġteam": 2944, "ately": 2945, "Ġmeasure": 2946, "Ġdecide": 2947, "Ġrealised": 2948, "umbled": 2949, "Ġdiscovered": 2950, "Ġcoins": 2951, "Ġneeds": 2952, "Ġborrow": 2953, "Ġswan": 2954, "\"Okay": 2955, "Ġstraw": 2956, "fic": 2957, "Ġadventur": 2958, "ĠBlue": 2959, "Jill": 2960, "cept": 2961, "ĠNo": 2962, "Ġcleaned": 2963, "Ġbranches": 2964, "Ġtowel": 2965, "Ġboys": 2966, "Ġextra": 2967, "Ġham": 2968, "ĠLittle": 2969, "asing": 2970, "Ġboard": 2971, "Ġchicken": 2972, "Ġbarn": 2973, "Ġmod": 2974, "Ġtiger": 2975, "Ġmotor": 2976, "Ġtag": 2977, "Ġadventurous": 2978, "Ġjoke": 2979, "Ġdiffic": 2980, "Ġoffered": 2981, "Ġfine": 2982, "keep": 2983, "Ġbalance": 2984, "Ġlifted": 2985, "ique": 2986, "Ġbubbles": 2987, "Ġcolourful": 2988, "Ġfrown": 2989, "Ġturt": 2990, "Ġeye": 2991, "Ġthick": 2992, "Mummy": 2993, "Ġdifficult": 2994, "Ġbottom": 2995, "Ġtrack": 2996, "Ġtoug": 2997, "alous": 2998, "Ġorganized": 2999, "Sp": 3000, "Ġcover": 3001, "Ġhappening": 3002, "Ġunique": 3003, "rag": 3004, "Ġjealous": 3005, "Ġdolp": 3006, "Ġhose": 3007, "port": 3008, "Ġknife": 3009, "Ġweird": 3010, "Ġisland": 3011, "ĠSusie": 3012, "cil": 3013, "Ġgarage": 3014, "Ġfright": 3015, "Ġmanaged": 3016, "lla": 3017, "imed": 3018, "Ġhurts": 3019, "Ġpencil": 3020, "Ġword": 3021, "ject": 3022, "Ġcrawled": 3023, "Ġcost": 3024, "Ġlearning": 3025, "Ġarg": 3026, "Ġcircle": 3027, "ĠMark": 3028, "Ġsaying": 3029, "Sue": 3030, "Ġkindness": 3031, "ured": 3032, "Ġberries": 3033, "Ġonce": 3034, "olog": 3035, "Ġmighty": 3036, "Ġballoons": 3037, "Ġtough": 3038, "Ġpointing": 3039, "Ġchase": 3040, "Ġbald": 3041, "Ġfavour": 3042, "ready": 3043, "Ġwand": 3044, "Ġter": 3045, "lies": 3046, "keeper": 3047, "Ġshake": 3048, "und": 3049, "iv": 3050, "ĠBobby": 3051, "Ġjewel": 3052, "Ġlouder": 3053, "ĠBrown": 3054, "ipper": 3055, "Ġadded": 3056, "ages": 3057, "Ġbatter": 3058, "Ġsil": 3059, "Ġhunt": 3060, "Ġunus": 3061, "Ġguit": 3062, "Ġharder": 3063, "Ġguess": 3064, "Ġapolog": 3065, "Ġedge": 3066, "head": 3067, "Ġalready": 3068, "Ġfour": 3069, "Ġang": 3070, "Ġspun": 3071, "Ġfavourite": 3072, "Ġfool": 3073, "Ġnorm": 3074, "Ġwhale": 3075, "Ġunusual": 3076, "Ġlibr": 3077, "Ġvalu": 3078, "ipp": 3079, "rage": 3080, "alk": 3081, "Ġenjoying": 3082, "ĠKitty": 3083, "Ġdizzy": 3084, "aw": 3085, "Ġhats": 3086, "Ġpump": 3087, "Ġbelonged": 3088, "Ġgrace": 3089, "Ġwrapped": 3090, "Ġcheerful": 3091, "Ġsmoke": 3092, "-up": 3093, "uggled": 3094, "Ġimpressed": 3095, "Ġstrawber": 3096, "Ġtrucks": 3097, "Ġrecord": 3098, "Ġgiving": 3099, "Ġsword": 3100, "Ġmarket": 3101, "Ġgrown": 3102, "Ġref": 3103, "Ġlaughs": 3104, "Ġtrunk": 3105, "Ġnormal": 3106, "anged": 3107, "Ġgrand": 3108, "Ġhero": 3109, "Ġears": 3110, "Ġguitar": 3111, "Ġloudly": 3112, "ola": 3113, "illiant": 3114, "Ġharm": 3115, "Ġturtle": 3116, "Here": 3117, "Ġbanana": 3118, "Ġproudly": 3119, "Ġboxes": 3120, "Ġscare": 3121, "ature": 3122, "ilt": 3123, "Ġbrilliant": 3124, "ery": 3125, "Ġchoose": 3126, "Ġbrothers": 3127, "Ġcircles": 3128, "Ġterri": 3129, "Ġbossy": 3130, "Ġdreamed": 3131, "Ġagainst": 3132, "Ġescape": 3133, "ym": 3134, "Ġgoat": 3135, "Ġinvited": 3136, "Ġskin": 3137, "Ġcab": 3138, "Ġhelps": 3139, "gy": 3140, "cient": 3141, "Ġcompet": 3142, "Ġpil": 3143, "ipe": 3144, "Ġpainting": 3145, "Ġmeans": 3146, "Ġmelt": 3147, "Ġfrightened": 3148, "Ġaccept": 3149, "fast": 3150, "Ġpee": 3151, "Ġflash": 3152, "Ġsafely": 3153, "Ġdepend": 3154, "Ġbuttons": 3155, "Ġslipped": 3156, "Ġdesign": 3157, "Ġstubb": 3158, "Ġbirdie": 3159, "Ġjack": 3160, "ĠDan": 3161, "Ġwrap": 3162, "Ġvaluable": 3163, "Ġcabin": 3164, "Ġcrayon": 3165, "ĠEllie": 3166, "Ġwake": 3167, "Ġstream": 3168, "ĠFred": 3169, "Ġwalls": 3170, "Ġhappiness": 3171, "ouses": 3172, "Ġbreakfast": 3173, "Ġlog": 3174, "erry": 3175, "Ġancient": 3176, "edient": 3177, "Ġstudy": 3178, "Ġsuccessful": 3179, "Ġclay": 3180, "emo": 3181, "orge": 3182, "Ġknows": 3183, "Ġfoolish": 3184, "Ġtoast": 3185, "Ġfalls": 3186, "ye": 3187, "Ġfridge": 3188, "Ġlean": 3189, "Ġstubborn": 3190, "Ġunl": 3191, "Ġnicely": 3192, "atch": 3193, "Ġshape": 3194, "apping": 3195, "omed": 3196, "Ġfier": 3197, "Ġcudd": 3198, "ĠPete": 3199, "Ġrough": 3200, "Ġdreams": 3201, "Ġmovie": 3202, "Ġspace": 3203, "Ġhouses": 3204, "Ġcity": 3205, "Ġnosy": 3206, "Ġbloom": 3207, "Ġdelicate": 3208, "Ġobedient": 3209, "Ġfierce": 3210, "ĠMy": 3211, "Ġoffice": 3212, "Ġtomato": 3213, "Ġfat": 3214, "Ġgrandpa": 3215, "ado": 3216, "laimed": 3217, "az": 3218, "Ġicy": 3219, "Ġcompetit": 3220, "Ġsuggested": 3221, "ĠToday": 3222, "Ġshark": 3223, "Ġdead": 3224, "Ġnotice": 3225, "Ġwagon": 3226, "pes": 3227, "Ġexclaimed": 3228, "Ġmem": 3229, "Ġkinds": 3230, "Ġmixed": 3231, "Ġwiped": 3232, "Ġcher": 3233, "Ġuseful": 3234, "ext": 3235, "Ġpoured": 3236, "Ġshells": 3237, "uth": 3238, "âĤ¬ÅĵLet": 3239, "Ġstri": 3240, "ĠBobo": 3241, "Ġlights": 3242, "Ġtools": 3243, "Ġlocked": 3244, "Ġsounded": 3245, "Ġthu": 3246, "Ġstove": 3247, "Ġexcitedly": 3248, "Ġexplored": 3249, "Ġaunt": 3250, "wards": 3251, "Ġegg": 3252, "ĠRose": 3253, "Ġfrag": 3254, "eorge": 3255, "Ġrose": 3256, "Ġson": 3257, "oppy": 3258, "Ġshadow": 3259, "Ġtimes": 3260, "arry": 3261, "Ġcro": 3262, "Ġenc": 3263, "ĠTweety": 3264, "Ġbags": 3265, "Ġfountain": 3266, "ention": 3267, "Ġthemselves": 3268, "oot": 3269, "Ġstumbled": 3270, "Ġbushes": 3271, "Ġweal": 3272, "ache": 3273, "dom": 3274, "Ġlow": 3275, "Ġshowing": 3276, "Ġspoiled": 3277, "Spot": 3278, "Ġfingers": 3279, "Ġperform": 3280, "Ġlab": 3281, "Ġabove": 3282, "vice": 3283, "Ġthoughtful": 3284, "Ġresc": 3285, "Ġindepend": 3286, "kn": 3287, "Ġsmaller": 3288, "Ġwitch": 3289, "Ġdough": 3290, "Em": 3291, "Ġfragile": 3292, "na": 3293, "Ġdependable": 3294, "ray": 3295, "Ġraced": 3296, "Ġjog": 3297, "arth": 3298, "Ġplayful": 3299, "inal": 3300, "Ġseem": 3301, "Ġhelm": 3302, "Ġspinning": 3303, "Ġeng": 3304, "Ġtele": 3305, "corn": 3306, "Ġclock": 3307, "Ġbrightly": 3308, "ines": 3309, "Ġprint": 3310, "Ġrode": 3311, "Ġstretch": 3312, "Ġparrot": 3313, "ormous": 3314, "Where": 3315, "Ġdelighted": 3316, "Ġbuilt": 3317, "Ġadmired": 3318, "Ġenormous": 3319, "Ġlaw": 3320, "Ġkicked": 3321, "ĠU": 3322, "Ġroof": 3323, "Ġcounted": 3324, "Ġjam": 3325, "Ġswe": 3326, "Ġrat": 3327, "Ġpractice": 3328, "reen": 3329, "Ġorig": 3330, "Ġways": 3331, "Ġchanged": 3332, "Ġshone": 3333, "Ġsunfl": 3334, "Ġcop": 3335, "ĠElla": 3336, "Ġreminded": 3337, "Ġtwig": 3338, "Ġacorn": 3339, "ither": 3340, "Ġcam": 3341, "ience": 3342, "Ġsniff": 3343, "Ġzip": 3344, "eeze": 3345, "Ġhammer": 3346, "Ġindependent": 3347, "ĠYour": 3348, "Ġusing": 3349, "Ġbitter": 3350, "Ġhanded": 3351, "Ġwhispered": 3352, "Ġhoop": 3353, "mbre": 3354, "known": 3355, "Ġchose": 3356, "Ġchir": 3357, "anut": 3358, "Ġloll": 3359, "Ġjolly": 3360, "Ġumbre": 3361, "ĠMrs": 3362, "Ġcone": 3363, "Ġtunn": 3364, "Ġsolve": 3365, "Ġstronger": 3366, "Ġbees": 3367, "Ġserious": 3368, "ipop": 3369, "ĠMar": 3370, "Ġoriginal": 3371, "Ġtummy": 3372, "Ġsteal": 3373, "Ġbeak": 3374, "Ġbrace": 3375, "Ġterrible": 3376, "âĤ¬ÅĵYes": 3377, "Ġmis": 3378, "Ġpopcorn": 3379, "Ġfre": 3380, "Ġlollipop": 3381, "Ġpainted": 3382, "Ġboats": 3383, "Ġallowed": 3384, "Ġhairy": 3385, "ict": 3386, "Ġmoder": 3387, "iable": 3388, "Ġsauce": 3389, "Ġcleaning": 3390, "Ġunknown": 3391, "Ġleaving": 3392, "Ġdust": 3393, "ĠBella": 3394, "Ġgasped": 3395, "Ġfinding": 3396, "Ġjoined": 3397, "Ġguard": 3398, "Ġsalad": 3399, "Ġpotato": 3400, "het": 3401, "Ġbean": 3402, "Ġpumpkin": 3403, "upid": 3404, "iew": 3405, "ĠBu": 3406, "Ġpicking": 3407, "Ġclum": 3408, "inary": 3409, "Ġdove": 3410, "Well": 3411, "anger": 3412, "Ġbump": 3413, "ĠNemo": 3414, "Ġhalf": 3415, "Ġsink": 3416, "amond": 3417, "Ġcostum": 3418, "uring": 3419, "Ġyet": 3420, "robe": 3421, "Ġmetal": 3422, "Ġtank": 3423, "Ġbounce": 3424, "Ġreliable": 3425, "Ġpost": 3426, "Ġtor": 3427, "Ġview": 3428, "Ġdoesn": 3429, "Ġthose": 3430, "Ġforth": 3431, "aghet": 3432, "aghetti": 3433, "Ġdiamond": 3434, "Ġdolphin": 3435, "Ġadvice": 3436, "com": 3437, "ĠSn": 3438, "\"But": 3439, "Ġhay": 3440, "Ġbarber": 3441, "Ġmodern": 3442, "Ġstamp": 3443, "Ġrubb": 3444, "Ġthinking": 3445, "Ġgem": 3446, "Ġing": 3447, "Ġholds": 3448, "gu": 3449, "ebra": 3450, "\"Tom": 3451, "ĠAlice": 3452, "\"Don": 3453, "Ġpirate": 3454, "How": 3455, "ugged": 3456, "Ġmarble": 3457, "Ġcreate": 3458, "Ġregular": 3459, "redient": 3460, "Ġingredient": 3461, "ĠGrandpa": 3462, "Ġclumsy": 3463, "Ġsleeping": 3464, "Ġsearching": 3465, "Ġstairs": 3466, "Ġwealthy": 3467, "Ġyarn": 3468, "Ġrushed": 3469, "Ġstupid": 3470, "Ġprep": 3471, "ilty": 3472, "Ġtelling": 3473, "ĠWhenever": 3474, "Ġspaghetti": 3475, "Ġguilty": 3476, "Ġcheap": 3477, "Ġpeanut": 3478, "Ġgoose": 3479, "Ġchar": 3480, "âĤ¬ÅĵWhat": 3481, "ophie": 3482, "Ġrub": 3483, "Ġmagn": 3484, "ations": 3485, "Ġflex": 3486, "ĠFr": 3487, "Ġcompass": 3488, "Ġopens": 3489, "Ġmask": 3490, "Ġpatch": 3491, "Ġstat": 3492, "Ġarrow": 3493, "Ġzebra": 3494, "Ġengine": 3495, "io": 3496, "Ġthunder": 3497, "Ġknock": 3498, "Ġsquare": 3499, "illa": 3500, "eezed": 3501, "irsty": 3502, "Ġangel": 3503, "\"Ben": 3504, "Ġcur": 3505, "Ġgraceful": 3506, "Ġcamera": 3507, "Ġumbrella": 3508, "cod": 3509, "Ġdriving": 3510, "ĠMike": 3511, "Ġbull": 3512, "Ġcrazy": 3513, "âĤ¬âĢ": 3514, "Ġshiver": 3515, "Go": 3516, "Ġwashed": 3517, "Ġcarrying": 3518, "Ġstage": 3519, "isk": 3520, "-c": 3521, "Ġpopular": 3522, "Ġbeet": 3523, "Ġdull": 3524, "umbers": 3525, "âĤ¬ÅĵIt": 3526, "Ġmissing": 3527, "ĠDucky": 3528, "Mary": 3529, "Ġsparkled": 3530, "\"Y": 3531, "Ġfriendship": 3532, "Ġtruth": 3533, "Ġmeal": 3534, "Ġseeds": 3535, "fa": 3536, "Ġflexible": 3537, "Ġimpressive": 3538, "Ġsne": 3539, "Ġtied": 3540, "Ġpebble": 3541, "time": 3542, "Ġcareless": 3543, "Ġlibrary": 3544, "Ġimagined": 3545, "Ġcomb": 3546, "uper": 3547, "?\".": 3548, "Ġdeliver": 3549, "Ġnature": 3550, "Ġshel": 3551, "Ġending": 3552, "Ġpatter": 3553, "Ġdestro": 3554, "Ġjacket": 3555, "Ġpersist": 3556, "Ġreward": 3557, "Ġhandle": 3558, "ision": 3559, "Ġfresh": 3560, "Ġrubbed": 3561, "Ġingredients": 3562, "Ġdreaming": 3563, "Ġshocked": 3564, "ric": 3565, "Ġprize": 3566, "oomy": 3567, "ĠDave": 3568, "Ġsudden": 3569, "Ġcrocod": 3570, "Ġload": 3571, "Ġenth": 3572, "ief": 3573, "ibb": 3574, "Ġpige": 3575, "Ġpattern": 3576, "\"R": 3577, "Ġcompassion": 3578, "\"B": 3579, "Ġenvel": 3580, "Ġflashlight": 3581, "Ġthirsty": 3582, "Ġsadly": 3583, "Ġencou": 3584, "Ġstranger": 3585, "Ġenthus": 3586, "ince": 3587, "ĠFin": 3588, "Ġwheels": 3589, "Ġdesk": 3590, "âĤ¬ÅĵLetÃ¢": 3591, "ement": 3592, "arsh": 3593, "Ġreading": 3594, "Ġwire": 3595, "Ġdiscover": 3596, "Ġearly": 3597, "Ġmailbox": 3598, "Ġfork": 3599, "Ġsuit": 3600, "Ġnumbers": 3601, "Ġtem": 3602, "Ġpeeked": 3603, "Ġpenny": 3604, "Ġbutterflies": 3605, "\"Mommy": 3606, "awn": 3607, "Ġcryst": 3608, "Ġspilled": 3609, "Ġbracelet": 3610, "Ġtorn": 3611, "Ġrug": 3612, "Ġgum": 3613, "Ġstops": 3614, "loo": 3615, "Ġrece": 3616, "Ġenv": 3617, "Ġcomput": 3618, "Ġahead": 3619, "Ġspring": 3620, "bled": 3621, "Ġorder": 3622, "Ġtowers": 3623, "comfort": 3624, "Ġsorts": 3625, "Ġobject": 3626, "ellig": 3627, "Ġwing": 3628, "Ġbent": 3629, "Ġcere": 3630, "Ġanx": 3631, "Ġsurf": 3632, "ĠBear": 3633, "Ġpengu": 3634, "Ġearth": 3635, "Ġintellig": 3636, "Ġwarned": 3637, "Ġwindows": 3638, "ĠMummy": 3639, "Ġspoke": 3640, "Ġpow": 3641, "ĠWhile": 3642, "Ġpup": 3643, "gest": 3644, "Ġhumble": 3645, "Ġuncomfort": 3646, "Ġavo": 3647, "Ġpant": 3648, "Ġnote": 3649, "Ġuncomfortable": 3650, "ĠMandy": 3651, "Ġplaced": 3652, "iches": 3653, "Ġsunflower": 3654, "Ġpale": 3655, "Ġtravel": 3656, "Ġbadly": 3657, "-a": 3658, "Ġolder": 3659, "Ġslides": 3660, "Ġanxious": 3661, "ikes": 3662, "Ġbiggest": 3663, "Ġscale": 3664, "Ġcompl": 3665, "\"Help": 3666, "ĠcouldnÃ¢": 3667, "Ġstack": 3668, "Ġflute": 3669, "Ġtrap": 3670, "Ġstatue": 3671, "Ġscoot": 3672, "Ġcounting": 3673, "Ġgrowing": 3674, "Ġcooking": 3675, "ĠPe": 3676, "Ġcomplet": 3677, "Ġliz": 3678, "Ġtunnel": 3679, "Ġbeetle": 3680, "Ġcelebrate": 3681, "\"Good": 3682, "host": 3683, "Ġmel": 3684, "Ġcupboard": 3685, "Ġmush": 3686, "Ġsofa": 3687, "ĠKim": 3688, "Ġnail": 3689, "Ġharmless": 3690, "Ġscatter": 3691, "ĠBill": 3692, "Ġbeauty": 3693, "Ġmole": 3694, "Ġdeaf": 3695, "Ġvalue": 3696, "Ġnurse": 3697, "Ġsuper": 3698, "Ġperm": 3699, "Ġer": 3700, "ĠHere": 3701, "Ġshut": 3702, "Ġpersistent": 3703, "Ġjumps": 3704, "Ġcrocodile": 3705, "While": 3706, "Ġhung": 3707, "Ġghost": 3708, "Ġgifted": 3709, "Ġrefused": 3710, "Ġcharming": 3711, "Ġtrick": 3712, "ĠGive": 3713, "Ġneat": 3714, "Ġnames": 3715, "Ġcourage": 3716, "Ġyawn": 3717, "ctop": 3718, "Ġflour": 3719, "ctopus": 3720, "Ġcrane": 3721, "Ġcurt": 3722, "Ġpretending": 3723, "Ġpony": 3724, "Ġcereal": 3725, "Ġbase": 3726, "Ġsandwiches": 3727, "ices": 3728, "ĠLola": 3729, "-old": 3730, "Ġraven": 3731, "Ġsnuggled": 3732, "ĠToby": 3733, "Ġcurtain": 3734, "\"Sorry": 3735, "Ġsupport": 3736, "Ġdestroy": 3737, "Ġtur": 3738, "Ġordinary": 3739, "Ġchasing": 3740, "ud": 3741, "Ġuniver": 3742, "ĠLook": 3743, "Ġquestion": 3744, "Ġenvelope": 3745, "aches": 3746, "-cream": 3747, "Ġdrawer": 3748, "\"Come": 3749, "Ġtriang": 3750, "Ġvi": 3751, "Ġcamp": 3752, "Ġsett": 3753, "Daisy": 3754, "used": 3755, "Ġcomputer": 3756, "Ġoctopus": 3757, "Ġattract": 3758, "Ġrules": 3759, "Ġcrawl": 3760, "Ġlively": 3761, "Ġsend": 3762, "Ġgloomy": 3763, "Alice": 3764, "Ġcartoon": 3765, "aby": 3766, "Ġuncle": 3767, "Ġintelligent": 3768, "ips": 3769, "Ġmay": 3770, "Ġpiano": 3771, "Ġspeed": 3772, "Ġpackage": 3773, "Ġblueber": 3774, "Ġshaking": 3775, "cu": 3776, "Ġhelmet": 3777, "Ġcrystal": 3778, "Ġneedle": 3779, "Ġmushroom": 3780, "Ġturkey": 3781, "oe": 3782, "ĠEventually": 3783, "Ġcollar": 3784, "Ġparade": 3785, "Ġcreatures": 3786, "stri": 3787, "uddy": 3788, "heart": 3789, "âĤ¬ÅĵThat": 3790, "Ġhurry": 3791, "Ġtwirled": 3792, "Ġphot": 3793, "Ġlizard": 3794, "illie": 3795, "erable": 3796, "enry": 3797, "ubby": 3798, "aff": 3799, "orant": 3800, "Ġalert": 3801, "Ġmiserable": 3802, "Ġthief": 3803, "gust": 3804, "Ġstation": 3805, "Ġsoldier": 3806, "Ġhunter": 3807, "Ġpepper": 3808, "ceed": 3809, "Ġtask": 3810, "arlie": 3811, "Ġanywhere": 3812, "Ġdug": 3813, "Ġdisgust": 3814, "Ġbicy": 3815, "Ġfireman": 3816, "\"Stop": 3817, "Ġener": 3818, "Ġcarp": 3819, "iest": 3820, "Ġwishes": 3821, "cut": 3822, "Ġseal": 3823, "Ġresist": 3824, "\"Of": 3825, "Ġled": 3826, "Ġvide": 3827, "Ġbeep": 3828, "Ġignorant": 3829, "-aid": 3830, "Ġbandage": 3831, "Ġstickers": 3832, "coa": 3833, "Ġscreen": 3834, "Ġradio": 3835, "Ġhelpless": 3836, "Ġbounced": 3837, "tter": 3838, "Ġtrash": 3839, "Give": 3840, "Ġsecond": 3841, "Ġleash": 3842, "Ġrepe": 3843, "Ġpracticed": 3844, "Ġmuff": 3845, "Ġshine": 3846, "Ġchance": 3847, "Ġletters": 3848, "Ġattractive": 3849, "Ġimpat": 3850, "Ġmill": 3851, "Ġstirred": 3852, "Ġcricket": 3853, "Ġjeep": 3854, "Ġstretched": 3855, "Ġnobody": 3856, "urb": 3857, "Ġthread": 3858, "Ġpasta": 3859, "Ġcube": 3860, "Ġpand": 3861, "Ġchubby": 3862, "Ġtooth": 3863, "ummer": 3864, "Ġfu": 3865, "Ġpigeon": 3866, "ses": 3867, "Ġjet": 3868, "Ġgir": 3869, "Ġcompassionate": 3870, "ccol": 3871, "ĠGeorge": 3872, "Ġclub": 3873, "ĠCl": 3874, "ccoli": 3875, "arian": 3876, "Benny": 3877, "ĠPolly": 3878, "Ġtrump": 3879, "Ġdisturb": 3880, "orable": 3881, "Ġdecorate": 3882, "Ġcocoa": 3883, "Ġbrighter": 3884, "Ġjug": 3885, "Ġsteps": 3886, "Ġimpatient": 3887, "Ġtire": 3888, "Ġcompetitive": 3889, "Ġfurther": 3890, "Ġotter": 3891, "Ġrespectful": 3892, "Ġsucceed": 3893, "Ġtroubled": 3894, "Ġpressed": 3895, "olin": 3896, "Ġitself": 3897, "aked": 3898, "Ġbet": 3899, "Stop": 3900, "Ġostri": 3901, "noon": 3902, "Ġcandle": 3903, "Ġmug": 3904, "ĠWh": 3905, "Ġafternoon": 3906, "Ġattic": 3907, "ĠAl": 3908, "Ġrestless": 3909, "Ġstarts": 3910, "Ġpun": 3911, "Ġtap": 3912, "Ġsomewhere": 3913, "Ġribb": 3914, "ĠAre": 3915, "aurant": 3916, "stic": 3917, "Ġdess": 3918, "Ġquar": 3919, "Ġcarpet": 3920, "Ġanyway": 3921, "Ġshouts": 3922, "Ġshoe": 3923, "Ġdisgusting": 3924, "Ġadorable": 3925, "Ġrestaurant": 3926, "Ġskip": 3927, "Ġleop": 3928, "Ġfort": 3929, "gn": 3930, "Ġpants": 3931, "Ġvine": 3932, "Ġtray": 3933, "Ġnuts": 3934, "Ġwaff": 3935, "Ġcase": 3936, "Ġgor": 3937, "Ġfearful": 3938, "come": 3939, "Ġscrew": 3940, "Ġenvious": 3941, "Ġsweetheart": 3942, "opter": 3943, "Ġcards": 3944, "Ġallig": 3945, "icopter": 3946, "Little": 3947, "iastic": 3948, "Ġdistant": 3949, "Ġbroccoli": 3950, "Ġenthusiastic": 3951, "Ġhipp": 3952, "Ġfilthy": 3953, "ĠSh": 3954, "Ġgiggle": 3955, "Ġexper": 3956, "Ġtrumpet": 3957, "Ġcooked": 3958, "Ġhelicopter": 3959, "Ġmonkeys": 3960, "-y": 3961, "night": 3962, "If": 3963, "Grandma": 3964, "Ġreco": 3965, "Ġpor": 3966, "ĠWhere": 3967, "irit": 3968, "Ġsandbox": 3969, "aroo": 3970, "angaroo": 3971, "Ġhook": 3972, "ĠWould": 3973, "gging": 3974, "\"Are": 3975, "Ġbri": 3976, "ĠLee": 3977, "Ġadmire": 3978, "Ġnowhere": 3979, "Ġten": 3980, "Ġharsh": 3981, "Ġbackpack": 3982, "Ġsoar": 3983, "ĠBrownie": 3984, "Ġsent": 3985, "Ġbelt": 3986, "Ġbatht": 3987, "gie": 3988, "Ġexplain": 3989, "Ġscooter": 3990, "Ġants": 3991, "llie": 3992, "Ġmeas": 3993, "opl": 3994, "Ġpoem": 3995, "eropl": 3996, "Ġcountry": 3997, "cycle": 3998, "Ġbathtub": 3999, "Ġpipe": 4000, "Ġaeropl": 4001, "Ġbarking": 4002, "Ġquite": 4003, "Ġunpack": 4004, "stairs": 4005, "Ġcows": 4006, "par": 4007, "Ġspeak": 4008, "Ġkangaroo": 4009, "Ġlid": 4010, "Ġsquash": 4011, "Ġleopard": 4012, "Ġmama": 4013, "Ġhappier": 4014, "Ġspell": 4015, "Ġtemp": 4016, "Ġrepair": 4017, "Ġlistening": 4018, "Ġbicycle": 4019, "Ġsepar": 4020, "imi": 4021, "ĠEverything": 4022, "Ġsummer": 4023, "Ġstared": 4024, "Ġcush": 4025, "Ġgrabs": 4026, "Ġmessage": 4027, "Ġbreat": 4028, "ĠdidnÃ¢": 4029, "uct": 4030, "Ġostrich": 4031, "Ġfirework": 4032, "ĠAlex": 4033, "Ġhuman": 4034, "Ġloop": 4035, "Ġgiven": 4036, "Ġcomet": 4037, "Ġmule": 4038, "hood": 4039, "apa": 4040, "Ġsort": 4041, "Ġimpro": 4042, "Jenny": 4043, "Ġgorilla": 4044, "ĠJoey": 4045, "See": 4046, "Ġmodest": 4047, "Ġpaid": 4048, "Ġfinds": 4049, "!\".": 4050, "Ġyogurt": 4051, "-year": 4052, "Ġdessert": 4053, "Ġmeat": 4054, "Ġobser": 4055, "Ġviolin": 4056, "Ġur": 4057, "ĠSophie": 4058, "Ġhedge": 4059, "ipping": 4060, "Ġspirit": 4061, "ĠSm": 4062, "Ġpulls": 4063, "Ġtripped": 4064, "shed": 4065, "Ġjellyfish": 4066, "Ġmelon": 4067, "Ġsplit": 4068, "Ġpaws": 4069, "Ġalligator": 4070, "Everyone": 4071, "Ġrescue": 4072, "Ġsize": 4073, "Ġholes": 4074, "Ġprov": 4075, "ucked": 4076, "\"Who": 4077, "Ġroared": 4078, "Ġfive": 4079, "Ġforgave": 4080, "ĠPat": 4081, "Ġcats": 4082, "Ġwheat": 4083, "Ġpurse": 4084, "Ġrecogn": 4085, "Ġhippo": 4086, "Ġpilot": 4087, "Ġhall": 4088, "Daddy": 4089, "Ġtax": 4090, "Ġsheet": 4091, "Who": 4092, "Ġpal": 4093, "Ġcact": 4094, "Ġinse": 4095, "Ġpushing": 4096, "ophone": 4097, "Ġbikes": 4098, "Ġorganize": 4099, "ci": 4100, "Ġswinging": 4101, "Ġsle": 4102, "Ġraft": 4103, "Ġsalt": 4104, "Ġscold": 4105, "Ġstarting": 4106, "Ġshade": 4107, "Ġbehave": 4108, "Ġbin": 4109, "Ġlightning": 4110, "Ġfle": 4111, "Ġoat": 4112, "Ġrice": 4113, "ĠSnow": 4114, "Ġhaircut": 4115, "Ġtriangle": 4116, "eer": 4117, "Ġbuzz": 4118, "Ġenergy": 4119, "iskers": 4120, "ĠTweetie": 4121, "âĤ¬ÅĵYou": 4122, "Ġbur": 4123, "Ġknot": 4124, "Ġfrowned": 4125, "bul": 4126, "Ġlear": 4127, "aled": 4128, "Ġlearnt": 4129, "Ġeither": 4130, "Ġporch": 4131, "Ġmath": 4132, "Ġriding": 4133, "Ġped": 4134, "Ġlip": 4135, "lcano": 4136, "seum": 4137, "Ġtrains": 4138, "ebook": 4139, "\"Ow": 4140, "Ġended": 4141, "Ġnotebook": 4142, "Ġsticker": 4143, "iling": 4144, "inking": 4145, "Ġlend": 4146, "\"Me": 4147, "Ġwallet": 4148, "Ġluck": 4149, "Ġevening": 4150, "reci": 4151, "Ġpanda": 4152, "te": 4153, "Ġcactus": 4154, "Ġjokes": 4155, "Ġchalk": 4156, "Ġbananas": 4157, "Ġpapers": 4158, "Ġrod": 4159, "Ġmuseum": 4160, "Ġsweater": 4161, "Ġappreci": 4162, "Ġlions": 4163, "Ġpalace": 4164, "ube": 4165, "Ġtaxi": 4166, "Ġvolcano": 4167, "Ġshopkeeper": 4168, "Ġchain": 4169, "Ġstrawberry": 4170, "Ġbears": 4171, "Ġrolling": 4172, "Ġboots": 4173, "Ġeras": 4174, "\"A": 4175, "Ġhadn": 4176, "astic": 4177, "Ġneighbour": 4178, "Ġbarrel": 4179, "Ġshakes": 4180, "ffe": 4181, "Ġmicr": 4182, "icer": 4183, "ffee": 4184, "ooped": 4185, "Ġsilver": 4186, "urch": 4187, "Ġlaund": 4188, "Ġalive": 4189, "Ġsmells": 4190, "Ġmild": 4191, "play": 4192, "Ġreind": 4193, "Ġsock": 4194, "ĠRed": 4195, "ĠJerry": 4196, "Ġlaundry": 4197, "Ġsteak": 4198, "ĠAndy": 4199, "Ġavoc": 4200, "Ġink": 4201, "Ġpole": 4202, "Ġstrugg": 4203, "iron": 4204, "Ġpushes": 4205, "ĠTr": 4206, "Ġputting": 4207, "Ġvisited": 4208, "Ġgoal": 4209, "Ġsoftly": 4210, "Ġmagnet": 4211, "Ġjudge": 4212, "edy": 4213, "Ġtricks": 4214, "Ġdrawings": 4215, "Ġmicrophone": 4216, "Ġclapping": 4217, "Ġpad": 4218, "Ġol": 4219, "Ġhive": 4220, "Ġshield": 4221, "Ġtube": 4222, "Ġleaned": 4223, "Ġcolours": 4224, "Ġsailor": 4225, "Ġshovel": 4226, "Ġairport": 4227, "Ġzoomed": 4228, "Ġfalling": 4229, "Ġrag": 4230, "Ġbelongs": 4231, "Ġshelter": 4232, "aggie": 4233, "Ġunlock": 4234, "Ġsprink": 4235, "Ġchecked": 4236, "elery": 4237, "happy": 4238, "Ġinsist": 4239, "Ġpenguin": 4240, "Ġquarrel": 4241, "Ġambul": 4242, "Ġclimbing": 4243, "Ġmarched": 4244, "ĠPaul": 4245, "Ġgro": 4246, "Ġdisplay": 4247, "Ġreindeer": 4248, "hino": 4249, "Ġsaus": 4250, "ĠBet": 4251, "ense": 4252, "Sorry": 4253, "cast": 4254, "Ġaeroplane": 4255, "Ġdive": 4256, "Ġdishes": 4257, "ophy": 4258, "Ġpolish": 4259, "Ġbarks": 4260, "ges": 4261, "Ġavail": 4262, "ĠdonÃ¢": 4263, "Ġfields": 4264, "Ġgrapes": 4265, "Ġsandcast": 4266, "Ġambulance": 4267, "Ġpeek": 4268, "ait": 4269, "Ġapologized": 4270, "Ġyach": 4271, "Ġsoil": 4272, "Ġcoffee": 4273, "Ġskill": 4274, "ĠPapa": 4275, "sely": 4276, "Ġcostume": 4277, "Ġelev": 4278, "Ġoy": 4279, "Ġtrophy": 4280, "Ġfeelings": 4281, "Ġplanet": 4282, "ĠOr": 4283, "Ġhoping": 4284, "anic": 4285, "Ġfilm": 4286, "Ġprun": 4287, "Ġrubber": 4288, "ron": 4289, "Ġunhappy": 4290, "Ġart": 4291, "Ġdrops": 4292, "Ġshrimp": 4293, "nger": 4294, "ĠBunny": 4295, "Ġmedal": 4296, "Ġkitty": 4297, "âĤ¬âĢľ": 4298, "Ġthanks": 4299, "Ġraining": 4300, "Ġmen": 4301, "chanic": 4302, "Ġstom": 4303, "Ġminute": 4304, "Ġelevator": 4305, "Ġcelery": 4306, "Ġcord": 4307, "Ġonion": 4308, "Ġrhino": 4309, "Ġavailable": 4310, "ected": 4311, "Ġeraser": 4312, "Ġincl": 4313, "Ġpage": 4314, "Ġshort": 4315, "Ġyacht": 4316, "reeze": 4317, "Ġshouldn": 4318, "Ġfisher": 4319, "Ġperfectly": 4320, "Ġimagine": 4321, "Ġwool": 4322, "Ġmarry": 4323, "Ġwinter": 4324, "Ġbasketball": 4325, "Ġmechanic": 4326, "ĠBuddy": 4327, "Ġdiary": 4328, "nam": 4329, "Ġbul": 4330, "Ġherb": 4331, "Ġflies": 4332, "Ġcomplete": 4333, "Ġrever": 4334, "Ġappl": 4335, "Ġclosely": 4336, "Ġcardboard": 4337, "Ġinsect": 4338, "Ġmagaz": 4339, "Ġeagerly": 4340, "Ġplayer": 4341, "ĠWhiskers": 4342, "eath": 4343, "Ġjournal": 4344, "ĠWill": 4345, "Ġbaking": 4346, "Ġvend": 4347, "Ġquit": 4348, "Ġfurn": 4349, "Ġglove": 4350, "iture": 4351, "ĠSmith": 4352, "Ġdisag": 4353, "Ġfurniture": 4354, "Ġstuffed": 4355, "Ġtub": 4356, "Ġbreaks": 4357, "Ġimagination": 4358, "Ġbulb": 4359, "Ġtreasures": 4360, "Ġchurch": 4361, "gen": 4362, "ecause": 4363, "Ġcounter": 4364, "any": 4365, "Ġwife": 4366, "Ġheaded": 4367, "Ġcooler": 4368, "azz": 4369, "Ġpair": 4370, "Ġfreez": 4371, "Ġfrogs": 4372, "Ġtut": 4373, "quit": 4374, "Ġskull": 4375, "mand": 4376, "ories": 4377, "Ġpit": 4378, "Ġknob": 4379, "ween": 4380, "\"Where": 4381, "Ġfactor": 4382, "stead": 4383, "right": 4384, "Ġswitch": 4385, "Ġfootball": 4386, "place": 4387, "Ġoffer": 4388, "ides": 4389, "Ġsunset": 4390, "Ġbetween": 4391, "Ġlie": 4392, "ifl": 4393, "aulifl": 4394, "Ġcheek": 4395, "Ch": 4396, "Ġsym": 4397, "Ġswung": 4398, "Ġfactory": 4399, "Ġcups": 4400, "ĠTed": 4401, "Ġmotorcycle": 4402, "Ġchirp": 4403, "Ġmos": 4404, "quito": 4405, "Ġflame": 4406, "Ġtwink": 4407, "Ġshouting": 4408, "nament": 4409, "Ġpainter": 4410, "Ġgolf": 4411, "Ġpeach": 4412, "Ġornament": 4413, "kelet": 4414, "Ġblowing": 4415, "Ġhut": 4416, "Ġsung": 4417, "affe": 4418, "pe": 4419, "Ġhotel": 4420, "Ġseeing": 4421, "Ġcaulifl": 4422, "Ġfolder": 4423, "Ġvendor": 4424, "ccer": 4425, "ĠMimi": 4426, "lass": 4427, "Ġvideo": 4428, "Ġmixer": 4429, "ab": 4430, "izes": 4431, "bol": 4432, "Ġthrows": 4433, "Ġpirates": 4434, "Ġcreated": 4435, "orses": 4436, "Ġheads": 4437, "Ġoil": 4438, "Ġkay": 4439, "Ġframe": 4440, "Ġmosquito": 4441, "angu": 4442, "\"Why": 4443, "Ġcushion": 4444, "mm": 4445, "Ġsoccer": 4446, "ĠMaria": 4447, "Ġfisherman": 4448, "Ġcoal": 4449, "ĠBun": 4450, "zzy": 4451, "Ġsymbol": 4452, "Ġhorses": 4453, "Ġcable": 4454, "ceros": 4455, "Ġpopped": 4456, "Ġlangu": 4457, "Ġwipe": 4458, "Ġpine": 4459, "ĠBaby": 4460, "Ġattention": 4461, "Ġskelet": 4462, "Ġbattery": 4463, "Ġpowder": 4464, "Ġcauliflower": 4465, "Ġstud": 4466, "Ġlaser": 4467, "ef": 4468, "..": 4469, "render": 4470, "Ġforgotten": 4471, "Ġweather": 4472, "ĠLilly": 4473, "rod": 4474, "Ġlives": 4475, "Ġmop": 4476, "osie": 4477, "Ġcelebrated": 4478, "Ġfishing": 4479, "Ġax": 4480, "Ġrot": 4481, "Ġsince": 4482, "Ġtrail": 4483, "\"Lily": 4484, "ĠIÃ¢": 4485, "elcome": 4486, "Ġmaze": 4487, "aws": 4488, "Ġphoto": 4489, "ĠGod": 4490, "ites": 4491, "Ġyoga": 4492, "Ġsurround": 4493, "ĠRo": 4494, "Ġwaving": 4495, "ĠGrace": 4496, "Ġslept": 4497, "Ġsneak": 4498, "Ġanch": 4499, "Ġdear": 4500, "unately": 4501, "Ġgiraffe": 4502, "Ġintrod": 4503, "Ġrhinoceros": 4504, "Ġpoke": 4505, "Ġswamp": 4506, "Ġflea": 4507, "Inside": 4508, "Ġpoints": 4509, "Ġitch": 4510, "Ġglowing": 4511, "Ġpoint": 4512, "ĠitÃ¢": 4513, "Ġfireplace": 4514, "Ġbreeze": 4515, "ney": 4516, "lasses": 4517, "Ġsub": 4518, "Ġvet": 4519, "Ġsunglasses": 4520, "Ġkingdom": 4521, "ĠAnnie": 4522, "Ġmemories": 4523, "ĠCharlie": 4524, "Ġtutor": 4525, "Ġstreng": 4526, "Ġtuna": 4527, "Ġiron": 4528, "Ġreve": 4529, "Ġvest": 4530, "spap": 4531, "ĠSandy": 4532, "Ġpetals": 4533, "Ġfog": 4534, "Ġmistakes": 4535, "Ġaxe": 4536, "Ġcomplain": 4537, "Ġbaseball": 4538, "Ġdancer": 4539, "Ġchickens": 4540, "Ġparent": 4541, "Ġig": 4542, "hero": 4543, "Ġnewspap": 4544, "Ġstrength": 4545, "Ġgreedy": 4546, "Ġceiling": 4547, "ckey": 4548, "Ġsquirrels": 4549, "Ġhockey": 4550, "Ġigloo": 4551, "Ġsir": 4552, "Ġgrin": 4553, "Ġanchor": 4554, "Ġskeleton": 4555, "rosc": 4556, "Ġsniffed": 4557, "Ġgrocer": 4558, "Ġsuperhero": 4559, "Ġargue": 4560, "ĠUn": 4561, "Ġnapkin": 4562, "chie": 4563, "Eventually": 4564, "Ġgolden": 4565, "ues": 4566, "Ġhanging": 4567, "Ġtrave": 4568, "Ġmusician": 4569, "medi": 4570, "Ġskirt": 4571, "ĠTony": 4572, "roscope": 4573, "Ġstaff": 4574, "Ġtemple": 4575, "Ġunif": 4576, "Ġagree": 4577, "Ġsque": 4578, "Ġbury": 4579, "mediately": 4580, "Ġtheater": 4581, "Ġdiscu": 4582, "Ġuniform": 4583, "Ġeaten": 4584, "ĠJess": 4585, "Ġslipper": 4586, "Ġwelcomed": 4587, "Ġseas": 4588, "Ġshoulder": 4589, "Ġzipper": 4590, "Ġquietly": 4591, "ssible": 4592, "Ġmeeting": 4593, "Ġlime": 4594, "Ġinvest": 4595, "istol": 4596, "Ġmicroscope": 4597, "Ġpinch": 4598, "chair": 4599, "Ġflapped": 4600, "Ġslippery": 4601, "Ġaccepted": 4602, "Ġfought": 4603, "Ġinvestig": 4604, "Ġpistol": 4605, "erc": 4606, "Ġdoors": 4607, "Ġminer": 4608, "reek": 4609, "Ġradish": 4610, "Ġplastic": 4611, "Ġthrowing": 4612, "Yay": 4613, "Ġcalls": 4614, "Ġbouncing": 4615, "tress": 4616, "Today": 4617, "Ġmattress": 4618, "men": 4619, "ĠInstead": 4620, "Ġsurrender": 4621, "Ġcob": 4622, "aces": 4623, "house": 4624, "Ġpear": 4625, "Ġcreek": 4626, "Ġvroom": 4627, "Ġkayak": 4628, "Emma": 4629, "tain": 4630, "Ġmoves": 4631, "Ġsticky": 4632, "Qu": 4633, "Ġlawy": 4634, "ĠHenry": 4635, "Ġnovel": 4636, "alley": 4637, "Ġcub": 4638, "Ġavocado": 4639, "Ġcared": 4640, "Ġsuff": 4641, "Ġfreezer": 4642, "Ġlotion": 4643, "aud": 4644, "case": 4645, "ler": 4646, "ison": 4647, "ĠMillie": 4648, "was": 4649, "Ġfauc": 4650, "anny": 4651, "Ġarmchair": 4652, "Ġwriting": 4653, "inked": 4654, "Ġreef": 4655, "Ġmakeup": 4656, "Ġmystery": 4657, "Ġvalley": 4658, "web": 4659, "Ġtug": 4660, "Ġinvestigate": 4661, "Ġnews": 4662, "Ġsailing": 4663, "Ġcherries": 4664, "Ġregret": 4665, "Ġcrib": 4666, "washer": 4667, "imney": 4668, "Ġexerc": 4669, "Ġoyster": 4670, "Ġfaucet": 4671, "Ġagre": 4672, "Ġsplashing": 4673, "ĠKate": 4674, "Ġticket": 4675, "\"Here": 4676, "Ġcollected": 4677, "Ġworth": 4678, "Ġchimney": 4679, "Ġtoil": 4680, "Together": 4681, "Ġpresents": 4682, "Ġdishwasher": 4683, "Ġmagazine": 4684, "Ġhappens": 4685, "Ġsprayed": 4686, "Ġwags": 4687, "âĤ¬ÅĵItÃ¢": 4688, "Next": 4689, "Ġprevent": 4690, "Ġcobweb": 4691, "Ġquack": 4692, "Ġveil": 4693, "Ġcastles": 4694, "Ġentered": 4695, "Ġtear": 4696, "Sammy": 4697, "Ġshrugged": 4698, "Ġhar": 4699, "Ġpassport": 4700, "Ġapplaud": 4701, "Ġchess": 4702, "Ġseparate": 4703, "Ġscolded": 4704, "lend": 4705, "\"This": 4706, "Ġweigh": 4707, "Ġtoilet": 4708, "Ġalarm": 4709, "ĠDanny": 4710, "ives": 4711, "Ġblankets": 4712, "Ġrake": 4713, "Ġignored": 4714, "Ġtucked": 4715, "Ġlawyer": 4716, "Ġchoice": 4717, "ived": 4718, "Ġhopes": 4719, "Ġattach": 4720, "Ġcoats": 4721, "Ġcandles": 4722, "Ġfollows": 4723, "Ġkisses": 4724, "Ġappro": 4725, "Ġclassroom": 4726, "ĠRu": 4727, "ring": 4728, "Ġpuddles": 4729, "Ġeasily": 4730, "Ġapart": 4731, "ety": 4732, "sit": 4733, "Ġdisappear": 4734, "Ġbeef": 4735, "Ġchairs": 4736, "Ġburned": 4737, "Ġbother": 4738, "Ġletting": 4739, "Ġstraight": 4740, "ĠNext": 4741, "eterin": 4742, "eterinarian": 4743, "Ġyield": 4744, "Ġward": 4745, "Ġdressed": 4746, "Ġcane": 4747, "Ġtrusted": 4748, "Ġlanguage": 4749, "Ġsizes": 4750, "Ġveterinarian": 4751, "Ġraz": 4752, "Ġteleph": 4753, "raged": 4754, "Ġcaring": 4755, "Ġplanes": 4756, "Ġwardrobe": 4757, "Ġjewelry": 4758, "atched": 4759, "Ġblinked": 4760, "iday": 4761, "Ġshower": 4762, "Ġrise": 4763, "\"Please": 4764, "Ġmissile": 4765, "ĠSu": 4766, "Ġkeeping": 4767, "Ġlawn": 4768, "Ġrequ": 4769, "Ġstable": 4770, "Ġcabinet": 4771, "Ġcrossed": 4772, "Ġoak": 4773, "ĠHarry": 4774, "rs": 4775, "Ġbookshe": 4776, "vision": 4777, "Mandy": 4778, "Ġstro": 4779, "Ġtelephone": 4780, "Ġnewspaper": 4781, "mend": 4782, "Ġclaws": 4783, "Ġrooms": 4784, "Ġsigh": 4785, "Ġpuzzles": 4786, "Ġaut": 4787, "Ġtrade": 4788, "Ann": 4789, "Ġincre": 4790, "ival": 4791, "Ġcell": 4792, "Ġwhisper": 4793, "Ġtornado": 4794, "Ġscratch": 4795, "una": 4796, "anges": 4797, "Ġbookcase": 4798, "Ġinf": 4799, "ampoo": 4800, "Ġblueberries": 4801, "Ġsnap": 4802, "Ġamazement": 4803, "appy": 4804, "ĠMiss": 4805, "Ġperfu": 4806, "ction": 4807, "ommend": 4808, "Ġsqueezed": 4809, "Ġbookshelf": 4810, "Ġrecommend": 4811, "Ġopera": 4812, "ĠRosie": 4813, "Ġsubway": 4814, "Ġpra": 4815, "atie": 4816, "Ġgym": 4817, "Ġdelay": 4818, "Ġgrill": 4819, "ĠSee": 4820, "ĠAb": 4821, "Ġrazor": 4822, "Ġblouse": 4823, "Ġrequest": 4824, "Ġcrawling": 4825, "ĠHelp": 4826, "Ġpur": 4827, "Ġpoked": 4828, "Ġtelevision": 4829, "Ġbill": 4830, "Ġhol": 4831, "ggy": 4832, "Ġfollowing": 4833, "omes": 4834, "iction": 4835, "Ġshampoo": 4836, "ĠTrue": 4837, "Ġfile": 4838, "Ġlicks": 4839, "Ġspear": 4840, "Ġsqueeze": 4841, "Ġholiday": 4842, "Ġexperience": 4843, "Ġlumber": 4844, "Ġimprove": 4845, "Ġmint": 4846, "Ġperfume": 4847, "Ġserve": 4848, "Ġdemand": 4849, "Ġsteam": 4850, "Ġcliff": 4851, "Ġringing": 4852, "Ġcrow": 4853, "fortunately": 4854, "ictionary": 4855, "bbie": 4856, "Ġribbon": 4857, "Ġimmediately": 4858, "Ġhelper": 4859, "Ġmuffin": 4860, "Ġfest": 4861, "Ġgrowled": 4862, "Ġisn": 4863, "Ġbegged": 4864, "Ġdictionary": 4865, "Ġmatches": 4866, "Ġshrink": 4867, "Ġwaste": 4868, "Ġblood": 4869, "Ġbirdc": 4870, "Ġprop": 4871, "Ġideas": 4872, "Ġwarmth": 4873, "ib": 4874, "Ġmustache": 4875, "Ġsneeze": 4876, "ores": 4877, "ĠJul": 4878, "Ġinvite": 4879, "hic": 4880, "Ġgear": 4881, "Ġbirdcage": 4882, "Ġvehic": 4883, "Ġfuel": 4884, "Ġalright": 4885, "Ġrabbits": 4886, "uckily": 4887, "asis": 4888, "Ġcalend": 4889, "Ġweep": 4890, "Ġyucky": 4891, "ĠRe": 4892, "Ġflutter": 4893, "Ġinstr": 4894, "Ġfallen": 4895, "Ġmarried": 4896, "Ġberry": 4897, "lier": 4898, "Ġrail": 4899, "Ġrow": 4900, "Ġpastry": 4901, "Did": 4902, "Ġrefre": 4903, "ucture": 4904, "Ġworms": 4905, "Ġstructure": 4906, "Ġlaught": 4907, "Thanks": 4908, "Ġsurprises": 4909, "Ġbravely": 4910, "Ġbelow": 4911, "Ġcalendar": 4912, "Ġoasis": 4913, "ĠClara": 4914, "Ġwandered": 4915, "Ġble": 4916, "Ġwigg": 4917, "Ġkneel": 4918, "ising": 4919, "Ġdire": 4920, "Ġunderstanding": 4921, "Ġhurting": 4922, "Ġlaughter": 4923, "omeday": 4924, "Ġdrain": 4925, "Ġpages": 4926, "Ġhearts": 4927, "Ġenter": 4928, "Ġairpl": 4929, "inky": 4930, "Ġitem": 4931, "ĠIs": 4932, "omob": 4933, "Ġharb": 4934, "ah": 4935, "Ġreaches": 4936, "Ġapron": 4937, "asp": 4938, "Ġsafety": 4939, "ĠSte": 4940, "Ġfloat": 4941, "Ġcrash": 4942, "Ġautomob": 4943, "Ġbathe": 4944, "Ġburied": 4945, "Ġjunk": 4946, "âĤ¬ÅĵNo": 4947, "Ġbuckle": 4948, "Ġadmir": 4949, "Ġroot": 4950, "Ġcaptain": 4951, "Ġstrawberries": 4952, "Ġmyself": 4953, "achel": 4954, "Ġrelaxed": 4955, "Ġsandcastle": 4956, "oral": 4957, "Ġignore": 4958, "Ġskills": 4959, "Ġplates": 4960, "Lisa": 4961, "'ve": 4962, "Ġwhip": 4963, "ĠKing": 4964, "?\"Ċ": 4965, "Ġspade": 4966, "Ġmoments": 4967, "ĠFo": 4968, "Ġreverse": 4969, "htray": 4970, "!\"Ċ": 4971, "ĠWho": 4972, "icing": 4973, "Ġquiz": 4974, "Ġashtray": 4975, "Ġfestival": 4976, "ari": 4977, "Ġbeamed": 4978, "Ġsnapped": 4979, "riger": 4980, "Ġsomeday": 4981, "Ġrefriger": 4982, "Ġraise": 4983, "cakes": 4984, "Ġreceived": 4985, "Ġrefrigerator": 4986, "!'": 4987, "Ġearlier": 4988, "Ġtong": 4989, "Ġlic": 4990, "ĠFreddy": 4991, "Ġweap": 4992, "Ġvac": 4993, "Ġteaching": 4994, "Ġmass": 4995, "Ġharbor": 4996, "ĠPeople": 4997, "Ġmodel": 4998, "ĠSnowy": 4999, "Ġsparkling": 5000, "Ġspots": 5001, "aped": 5002, "Ġinsisted": 5003, "Ġsaving": 5004, "Ġvanished": 5005, "Ġsocks": 5006, "Ġbumped": 5007, "ĠIts": 5008, "Ġthumb": 5009, "anna": 5010, "Ġdried": 5011, "Ġsupply": 5012, "ission": 5013, "Ġblackboard": 5014, "igail": 5015, "Ġprepare": 5016, "Ġjail": 5017, "Ġjewels": 5018, "Ġspending": 5019, "Ġbalan": 5020, "Ġscattered": 5021, "ĠBefore": 5022, "xy": 5023, "Ġtoes": 5024, "Ġscooped": 5025, "Ġsettled": 5026, "Ġpermission": 5027, "Ġsparkle": 5028, "Ġknown": 5029, "ctly": 5030, "Ġbreathe": 5031, "Ġboot": 5032, "-ups": 5033, "Ġyawned": 5034, "Ġres": 5035, "ĠMay": 5036, "amber": 5037, "ĠJames": 5038, "Ġachie": 5039, "Ġdestroyed": 5040, "Ġbathrobe": 5041, "Ġtease": 5042, "Ġremain": 5043, "Ġhardly": 5044, "Ġencouraged": 5045, "Ġreplace": 5046, "Ġwaffle": 5047, "antly": 5048, "Ok": 5049, "With": 5050, "Ġpride": 5051, "Ġlemonade": 5052, "Ġdare": 5053, "Ġhanger": 5054, "Ġsits": 5055, "Ġpulling": 5056, "ĠHave": 5057, "Ġdecorations": 5058, "sters": 5059, "Ġremove": 5060, "Peter": 5061, "Ġcuddled": 5062, "ops": 5063, "Ġhate": 5064, "Ġdaisy": 5065, "Ġlicense": 5066, "avid": 5067, "Ġbeans": 5068, "Ġsimp": 5069, "Ġport": 5070, "Ġrespons": 5071, "izard": 5072, "Ġpraised": 5073, "sing": 5074, "reat": 5075, "Ġchirping": 5076, "Ġhits": 5077, "ents": 5078, "Ġequ": 5079, "Ġfastest": 5080, "Ġsuffer": 5081, "xture": 5082, "Ġbuzzing": 5083, "Ġpatiently": 5084, "Ġdresses": 5085, "Ġmention": 5086, "Ġbleed": 5087, "sity": 5088, "Ġrhy": 5089, "Ġautomobile": 5090, "nies": 5091, "Ġappreciate": 5092, "Ġpoppy": 5093, "Ġdestination": 5094, "Your": 5095, "Ġtaller": 5096, "Ġmall": 5097, "osed": 5098, "Ġhomes": 5099, "Ġnation": 5100, "ium": 5101, "Ġdigg": 5102, "Ġflav": 5103, "Ġclimbs": 5104, "Ġguy": 5105, "Ġwashing": 5106, "Ġpalm": 5107, "Ġglo": 5108, "Ġshot": 5109, "Ġlabel": 5110, "Emily": 5111, "Ġbelieved": 5112, "Ġdigging": 5113, "Ġapproached": 5114, "Ġhesit": 5115, "fied": 5116, "Mmm": 5117, "Re": 5118, "Ġnone": 5119, "Ġtore": 5120, "Ġdeeper": 5121, "Ġwine": 5122, "Ġinfant": 5123, "ude": 5124, "Ġrestore": 5125, "Ġscore": 5126, "Ġhers": 5127, "ĠTina": 5128, "rm": 5129, "Ġmitten": 5130, "Ġchamber": 5131, "Will": 5132, "ĠOllie": 5133, "Ġsausage": 5134, "Ġstruggling": 5135, "Ġheat": 5136, "Ġdifferen": 5137, "Ġtongue": 5138, "Ġhills": 5139, "Ġhurric": 5140, "Ġpunish": 5141, "Ġpillows": 5142, "Ġbillboard": 5143, "Ġsneezed": 5144, "Ġsport": 5145, "Ġwizard": 5146, "All": 5147, "ĠEach": 5148, "Ġupstairs": 5149, "Ġthrilled": 5150, "Ġprovide": 5151, "Ġbrain": 5152, "Ġawe": 5153, "Ġdiscuss": 5154, "Jake": 5155, "Ġpanic": 5156, "Ġwarning": 5157, "Ġtwisted": 5158, "Ġglowed": 5159, "Ġuniverse": 5160, "Ġfiref": 5161, "Ġtherm": 5162, "Ġvacation": 5163, "Ġworse": 5164, "Ġcrunch": 5165, "Ġpoison": 5166, "Bye": 5167, "Ġshed": 5168, "Ġsolved": 5169, "Ġparts": 5170, "osity": 5171, "ĠCo": 5172, "bey": 5173, "Ġevent": 5174, "Ġsetting": 5175, "allen": 5176, "Ġtour": 5177, "Ġremained": 5178, "Mark": 5179, "Ġairplane": 5180, "Ġhurricane": 5181, "Ġthermomet": 5182, "Ġplays": 5183, "Welcome": 5184, "Ġexamine": 5185, "Ġsparkles": 5186, "Ġshooting": 5187, "Ġinvit": 5188, "Ġneighborhood": 5189, "Ġsty": 5190, "Ġchores": 5191, "Ġoranges": 5192, "Ġfloated": 5193, "Ġranch": 5194, "Ġchallen": 5195, "ĠMaggie": 5196, "thm": 5197, "Ġweeks": 5198, "Ġleak": 5199, "ĠEveryday": 5200, "Ġuniversity": 5201, "Ġpaints": 5202, "Ġthermometer": 5203, "Ġbites": 5204, "These": 5205, "Ġrepeat": 5206, "Ġbang": 5207, "adium": 5208, "Ġfloating": 5209, "Ġfixing": 5210, "ging": 5211, "Ġmeasured": 5212, "ĠBetsy": 5213, "Ġstadium": 5214, "Ġgrinned": 5215, "do": 5216, "Ġduring": 5217, "!\",": 5218, "Ġsurrounded": 5219, "Ġsupposed": 5220, "aspoon": 5221, "Ġconf": 5222, "Ġrhythm": 5223, "Ġmassage": 5224, "Ġbrings": 5225, "Fl": 5226, "Ġpaused": 5227, "Ġcherry": 5228, "Ġgifts": 5229, "Ġfut": 5230, "Ġsprinkles": 5231, "Ġfasc": 5232, "Ġfuture": 5233, "Ġmemory": 5234, "âĤ¬ÅĵIÃ¢": 5235, "Ġteaspoon": 5236, "Ġgrey": 5237, "rise": 5238, "Ġcollection": 5239, "Ġsigns": 5240, "Jen": 5241, "Ġmarbles": 5242, "Not": 5243, "bbles": 5244, "Ġjazz": 5245, "Ġstomach": 5246, "ĠBuzz": 5247, "Ġgust": 5248, "emember": 5249, "Ġwisdom": 5250, "Ġactually": 5251, "Ġflood": 5252, "Ġdiscovery": 5253, ".\"Ċ": 5254, "Ġinclud": 5255, "Ġsew": 5256, "Ġvehicle": 5257, "Ġtide": 5258, "Ġlily": 5259, "-ray": 5260, "Ġgirls": 5261, "Ġsunrise": 5262, "\"Go": 5263, "ĠGood": 5264, "ishing": 5265, "ĠLiz": 5266, "vet": 5267, "âĤ¬ÅĵThatÃ¢": 5268, "Ġmeowed": 5269, "ls": 5270, "Ġelephants": 5271, "Ġurge": 5272, "Ġexercise": 5273, "Ġmailman": 5274, "Ġlugg": 5275, "umble": 5276, "Ġdecision": 5277, "Ġchewed": 5278, "Ġrush": 5279, "Help": 5280, "Ġweapon": 5281, "Ġstrang": 5282, "Ġobserve": 5283, "Ġluggage": 5284, "Ġunite": 5285, "Ġcartoons": 5286, "ero": 5287, "Ġsore": 5288, "Ġfascin": 5289, "Ġtomatoes": 5290, "iers": 5291, "Ġscur": 5292, "Ġpossible": 5293, "Ġtoe": 5294, "ĠLater": 5295, "allow": 5296, "cles": 5297, "Ġsunlight": 5298, "?\".ĊĊ": 5299, "ities": 5300, "Ġfolded": 5301, "\"Anna": 5302, "Ġcurled": 5303, "ĠV": 5304, "Ġchirped": 5305, "\"Re": 5306, "Ġrust": 5307, "Ġmelted": 5308, "ĠRuby": 5309, "Ġspill": 5310, "Ġcakes": 5311, "uing": 5312, "Ġsip": 5313, "Ġcollecting": 5314, "Ġx": 5315, "Ġgrape": 5316, "son": 5317, "ĠJoy": 5318, "Ġmineral": 5319, "ĠRachel": 5320, "?ĊĊ": 5321, "Ġbrus": 5322, "\"Be": 5323, "eed": 5324, "Ġdifference": 5325, "Ġproblems": 5326, "Ġbak": 5327, "Le": 5328, "Ġtracks": 5329, "Ġjogging": 5330, "Johnny": 5331, "Ġwherever": 5332, "ĠMe": 5333, "Ġmountains": 5334, "ipment": 5335, "Ġbes": 5336, "Ġsliding": 5337, "eration": 5338, "Ġmanage": 5339, "Ġequipment": 5340, "etch": 5341, "Ġlaid": 5342, "Ġlick": 5343, "Ġadmiring": 5344, "Ġwatered": 5345, "cious": 5346, "Ġsatis": 5347, "Ġcontain": 5348, "Ġbricks": 5349, "ĠSpike": 5350, "oved": 5351, "Ġtwigs": 5352, "rr": 5353, "ĠSomeone": 5354, "Ġpatterns": 5355, "Ġkindly": 5356, "Ġpetted": 5357, "Ġskipping": 5358, "Ġpotatoes": 5359, "Ġseats": 5360, "Ex": 5361, "bers": 5362, "Ġsoldiers": 5363, "Ġgloves": 5364, "Ġspaces": 5365, "zag": 5366, "joyed": 5367, "unday": 5368, "Ġreceive": 5369, "Ġkeeper": 5370, "Ġcopper": 5371, "Ġemer": 5372, "Ġslice": 5373, "Ġlets": 5374, "Ġgain": 5375, "ddy": 5376, "Ġcontinue": 5377, "Ġordered": 5378, "Ġstrangers": 5379, "walk": 5380, "Ġoverjoyed": 5381, "Ġwatches": 5382, "Ġgotten": 5383, "Ġpigs": 5384, "omas": 5385, "Ġzipped": 5386, "mother": 5387, "ĠSunday": 5388, "Ġlands": 5389, "Ġwhistling": 5390, "Ġgaz": 5391, "Ġbeside": 5392, "-se": 5393, "âĤ¬ÅĵThank": 5394, "Ġsafari": 5395, "Ġbeg": 5396, "Ġprayed": 5397, "\"Give": 5398, "ĠCat": 5399, "Ġpeered": 5400, "Ġnetwork": 5401, "ĠSteve": 5402, "bbled": 5403, "Ġspit": 5404, "Ġeff": 5405, ":ĊĊ": 5406, "Ġinvitation": 5407, "Ġmarching": 5408, "Ġours": 5409, "Susie": 5410, "ases": 5411, "Ġglitter": 5412, "ĠPenny": 5413, "Ġwooden": 5414, "Ġearthqu": 5415, "Ġsidewalk": 5416, "Ġeagle": 5417, "igzag": 5418, "Ġdoggy": 5419, "Ġdrinks": 5420, "Ġgrocery": 5421, "irp": 5422, "Ġweight": 5423, "Ġnavy": 5424, "Ġacorns": 5425, "Ġattached": 5426, "Ġraised": 5427, "Ġdisagreed": 5428, "loe": 5429, "Ġweren": 5430, "ĠPoppy": 5431, "ĠLetÃ¢": 5432, "ĠMilly": 5433, "Ġbeat": 5434, "-and": 5435, "Ġcompany": 5436, "Ġmister": 5437, "Ġburning": 5438, "fy": 5439, "Ġonwards": 5440, "Al": 5441, "hest": 5442, "\",": 5443, "Ġwre": 5444, "Ġhappiest": 5445, "St": 5446, "ĠSpark": 5447, "Moral": 5448, "Ġracing": 5449, "Ġbrid": 5450, "Ġcrashed": 5451, "Ġspoons": 5452, "Ġfed": 5453, "Before": 5454, "Ġcrunchy": 5455, "Ġpeanuts": 5456, "Ġwhistled": 5457, "ĠSharing": 5458, "Ġprice": 5459, "-seek": 5460, "Ġmeow": 5461, "Ġhurried": 5462, "Ġhist": 5463, "Ġofficer": 5464, "ĠRa": 5465, "Ġbrick": 5466, "Ġaccom": 5467, "Ġtremb": 5468, "Ġrefreshed": 5469, "Ġpies": 5470, "Ġremem": 5471, "Ġflap": 5472, "Ġworks": 5473, "Ġclearing": 5474, "nie": 5475, "ĠSad": 5476, "Ġoperation": 5477, "Ġprepared": 5478, "Ġbowed": 5479, "Ġscratched": 5480, "Ġremembers": 5481, "Ġhistory": 5482, "Ġexa": 5483, "aded": 5484, "Ġlips": 5485, "amb": 5486, "ĠKatie": 5487, "Ġfireworks": 5488, "Ġprune": 5489, "âĤ¬ÅĵWe": 5490, "Ġescaped": 5491, "Ġdinosaurs": 5492, "Ġmenu": 5493, "ĠAbigail": 5494, "Ġbridges": 5495, "Ġtalent": 5496, "Ġplanted": 5497, "amie": 5498, "Ġbuildings": 5499, "Ġrevealed": 5500, "âĤ¬.": 5501, "Ġeasier": 5502, "Ġbye": 5503, "Ġturning": 5504, "Ġcomfy": 5505, "Ġscreams": 5506, "Ġolive": 5507, "Ġbrand": 5508, "ĠChr": 5509, "ĠQu": 5510, "Ġhated": 5511, "Ġchat": 5512, "Ġselling": 5513, "Ġsnowball": 5514, "die": 5515, "ĠLuna": 5516, "Ġrecognized": 5517, "Ġwarn": 5518, "Ġaccompl": 5519, "Ġcrept": 5520, "Ġprecious": 5521, "ĠZoe": 5522, "Ġlandsc": 5523, "omething": 5524, "ĠFro": 5525, "Ġstrip": 5526, "ĠNot": 5527, "Ġmuddy": 5528, "Ġpadd": 5529, "Ġwid": 5530, "Ġdrinking": 5531, "Ġsings": 5532, "xygen": 5533, "Ġbeds": 5534, "Ġpupp": 5535, "ecture": 5536, "Ġsettle": 5537, "Ġearthquake": 5538, "ĠMat": 5539, "Ġsimple": 5540, "Is": 5541, "Ġeffort": 5542, "cc": 5543, "\"My": 5544, "ĠRemy": 5545, "Ġreminder": 5546, "Ġspaceship": 5547, "Ġmeasuring": 5548, "Ġslip": 5549, "Ġperched": 5550, "Ġlecture": 5551, "Ġbones": 5552, "Ġserved": 5553, "Ġappear": 5554, "Ġwonders": 5555, "Ġshadows": 5556, "Ġwaits": 5557, "Ġvoices": 5558, "âĤ¬ÅĵCan": 5559, "Ġcuddle": 5560, "Ġeveryday": 5561, "Ġpedal": 5562, "Ġpitch": 5563, "Ġcomforted": 5564, "Ġagreement": 5565, "Ġresponsible": 5566, "Ġcircus": 5567, "Ġrained": 5568, "Ġvel": 5569, "Ġobey": 5570, "ffic": 5571, "Would": 5572, "Ġvict": 5573, "Ġtip": 5574, "Ġsoared": 5575, "Ġallow": 5576, "Ġanytime": 5577, "Ġtrapped": 5578, "Ġcal": 5579, "Ġwhatever": 5580, "Ġzigzag": 5581, "Ġtastes": 5582, "Ġapologize": 5583, "Ġlandscape": 5584, "Ġcutting": 5585, "Ġsucceeded": 5586, "Ġshopping": 5587, "Ġrang": 5588, "Ġpets": 5589, "Ġsecrets": 5590, "Ġvillag": 5591, "Ġfash": 5592, "ĠDavid": 5593, "Ġvelvet": 5594, "Ġprinter": 5595, "Ġdisturbed": 5596, "Ġwaist": 5597, "Ġitems": 5598, "Ġswims": 5599, "Ġbun": 5600, "Ġtraffic": 5601, "Ġpracticing": 5602, "Ġsteel": 5603, "Ġbringing": 5604, "Ġoats": 5605, "Ġexactly": 5606, "Ġsisters": 5607, "Ġrested": 5608, "Ġvisiting": 5609, "Ġscoop": 5610, "Ġactiv": 5611, "Luckily": 5612, "Ġcostumes": 5613, "annah": 5614, "Ġanswers": 5615, "ĠFrank": 5616, "!\".ĊĊ": 5617, "izing": 5618, "Ġolives": 5619, "ien": 5620, "mble": 5621, "Ġbrushed": 5622, "Ġstyle": 5623, "Ġmouths": 5624, "ĠPr": 5625, "'.": 5626, "Ġsoak": 5627, "laire": 5628, "Ġcuriosity": 5629, "ishes": 5630, "Ġoutdo": 5631, "neath": 5632, "Ġbreaking": 5633, "Ġfashion": 5634, "ĠSunny": 5635, "Ġrele": 5636, "Ġowned": 5637, "Ġladyb": 5638, "Ġencourage": 5639, "ĠNut": 5640, "âĤ¬ÅĵDon": 5641, "Ġknelt": 5642, "Ġfascinated": 5643, "Ġleather": 5644, "mare": 5645, "Ġimage": 5646, "iggy": 5647, "Ġvillagers": 5648, "oming": 5649, "Ġnails": 5650, "Ġbeneath": 5651, "icorn": 5652, "Ġunderground": 5653, "Ġwaffles": 5654, "Tweet": 5655, "Ġunicorn": 5656, "Ġsadness": 5657, "enty": 5658, "terday": 5659, "Ġunlocked": 5660, "inda": 5661, "Ġdied": 5662, "Ġrecognize": 5663, "ĠItÃ¢": 5664, "Ġdownstairs": 5665, "Ġcreation": 5666, "Ġcatching": 5667, "ĠChirp": 5668, "Ġgrandmother": 5669, "\"Yuck": 5670, "Ġoxygen": 5671, "isten": 5672, "Ġmonsters": 5673, "Ġtremble": 5674, "Ġchef": 5675, "ĠJe": 5676, "Ġeats": 5677, "\"Yay": 5678, "ĠThese": 5679, "Ġpupil": 5680, "ik": 5681, "Ġwanting": 5682, "Ġnightmare": 5683, "Ġjogged": 5684, "Ġcape": 5685, "Ġstripes": 5686, "Ġdoctors": 5687, "Ġsoaring": 5688, "Ġblueberry": 5689, "ley": 5690, "ĠHowever": 5691, "Ġstruggled": 5692, "Ġlemons": 5693, "ĠBeth": 5694, "Ġwondering": 5695, "Ġbleeding": 5696, "Ġpunished": 5697, "Ġgained": 5698, "Ġfamil": 5699, "ayla": 5700, "dam": 5701, "Ġfetch": 5702, "ĠSomething": 5703, "Ġexamined": 5704, "Ġnicer": 5705, "Ġguessed": 5706, "Ġplanned": 5707, "Ġdrag": 5708, "Ġcaut": 5709, "Ġsitu": 5710, "Ġmachines": 5711, "Ġmission": 5712, "First": 5713, "Ġstealing": 5714, "Ġargued": 5715, "uke": 5716, "Ġarea": 5717, "ĠFirst": 5718, "Ġcomple": 5719, "Ġpiles": 5720, "Ġsi": 5721, "Ġherbs": 5722, "Ġfreeze": 5723, "\"Bye": 5724, "Ġintroduc": 5725, "Ġstirring": 5726, "Ġripped": 5727, "Ġsix": 5728, "Ġchallenge": 5729, "Ġtugged": 5730, "Ġstudied": 5731, "Ġfiremen": 5732, "Un": 5733, "Ġbend": 5734, "Ġbare": 5735, "Ġwagging": 5736, "Ġzooming": 5737, "Ġaccidents": 5738, "Ġvictory": 5739, "ĠOw": 5740, "Ġsatisfied": 5741, "Ġwreck": 5742, "ĠSuzy": 5743, "Ġinstruct": 5744, "Ġproperly": 5745, "agull": 5746, "Ġkeys": 5747, "ulu": 5748, "Dave": 5749, "Ġwinning": 5750, "Ġshivering": 5751, "ĠUncle": 5752, "looking": 5753, "Ġbunnies": 5754, "Ġincrease": 5755, "ux": 5756, "ding": 5757, "Ġgathering": 5758, "Ġtune": 5759, "Ġmice": 5760, "Ġexit": 5761, "Ġfirefight": 5762, "Ġoutdoors": 5763, "Ġwinner": 5764, "Ġtwirling": 5765, "Ġslapped": 5766, "Ġloaded": 5767, "Ġteasing": 5768, "Ġpeel": 5769, "Ġdecorated": 5770, "ĠKe": 5771, "uxu": 5772, "Ġdeser": 5773, "Ġsupplies": 5774, "Ġyelling": 5775, "Ġneighbourhood": 5776, "Ġseagull": 5777, "Ġunderneath": 5778, "Ġpermit": 5779, "-looking": 5780, "Ġsights": 5781, "Ġtickets": 5782, "usan": 5783, "Ġann": 5784, "Ġpancakes": 5785, "oh": 5786, "Ġbegin": 5787, "Ġburrow": 5788, "Ġpearl": 5789, "Ġrides": 5790, "Ġsiren": 5791, "Ġpeaches": 5792, "ĠJan": 5793, "Ġmixing": 5794, "Ġreleased": 5795, "Ġdraws": 5796, "Ġweighed": 5797, "aky": 5798, "Fluffy": 5799, "ena": 5800, "ĠTw": 5801, "Ġsneaked": 5802, "ica": 5803, "ĠFloppy": 5804, "indy": 5805, ".'": 5806, "Ġconfident": 5807, "Ġrealize": 5808, "Ġinstructions": 5809, "Ġspiders": 5810, "Ġintroduce": 5811, "Ġluxu": 5812, "Ġdam": 5813, "Ġmuffins": 5814, "shing": 5815, "Lola": 5816, "Ġcontro": 5817, "-b": 5818, "Cl": 5819, "ĠletÃ¢": 5820, "Ġpinched": 5821, "\"Wait": 5822, "Ġbudge": 5823, "Ġsolut": 5824, "Ġzero": 5825, "Ġcompetition": 5826, "ĠLucky": 5827, "ĠJulie": 5828, "ĠNutty": 5829, "Ġprinted": 5830, "Ġstudying": 5831, "Ġloving": 5832, "Ġbeha": 5833, "Ġinch": 5834, "Ġpockets": 5835, "ĠCoco": 5836, "Ġbaked": 5837, "ales": 5838, "Ġstruck": 5839, "âĤ¬ÅĵLook": 5840, "ĠDid": 5841, "ĠRabbit": 5842, "Ġshoulders": 5843, "Ġbunch": 5844, "Ġopin": 5845, "Ġlines": 5846, "Ġfrosting": 5847, "Ġrelease": 5848, "Ġdecides": 5849, "Sometimes": 5850, "Ġgiggling": 5851, "Ġbroom": 5852, "ĠLike": 5853, "Ġourselves": 5854, "Bella": 5855, "Ġweb": 5856, "Ġpastel": 5857, "lled": 5858, "ĠPip": 5859, "Ġstamps": 5860, "Ġcones": 5861, "nes": 5862, "Ġemergen": 5863, "âĤ¬ÅĵHello": 5864, "Ġstair": 5865, "Ġstitch": 5866, "bbing": 5867, "George": 5868, "ĠStop": 5869, "ĠOl": 5870, "Ġprunes": 5871, "Ġladybug": 5872, "Ġsides": 5873, "oed": 5874, "ĠY": 5875, "Ġgrant": 5876, "Ġscurried": 5877, "Ġstrings": 5878, "âĤ¬âĢĿ": 5879, "Ġtim": 5880, "ais": 5881, "Ġmarks": 5882, "\"Well": 5883, "Mike": 5884, "Mr": 5885, "Ġruler": 5886, "Ġpears": 5887, "Andy": 5888, "gers": 5889, "Teddy": 5890, "Wait": 5891, "Because": 5892, "ednes": 5893, "ednesday": 5894, "Ġrepeated": 5895, "Ġdrift": 5896, "Ġkeeps": 5897, "Ġago": 5898, "Ġclaps": 5899, "Ġpoking": 5900, "ĠAm": 5901, "anta": 5902, "âĤ¬ÅĵThis": 5903, "ays": 5904, "ĠBig": 5905, "Ġcrowd": 5906, "ĠHop": 5907, "Ġruin": 5908, "Ġprints": 5909, "kins": 5910, "low": 5911, "Ġbrushes": 5912, "Ġkicking": 5913, "Ġstretching": 5914, "Ġdemanded": 5915, "ĠThomas": 5916, "len": 5917, "Ġsting": 5918, "ody": 5919, "Ġneighbors": 5920, "Ġmentioned": 5921, "ira": 5922, "Ġmast": 5923, "owers": 5924, "Ġtouching": 5925, "Ġtonight": 5926, "Ġprotected": 5927, "ĠChirpy": 5928, "Ġwrites": 5929, "Ġsweeties": 5930, "ĠJosh": 5931, "Ġgoodnight": 5932, "uesday": 5933, "Ġyouth": 5934, "Ġbuckets": 5935, "Ġribbons": 5936, "va": 5937, "jam": 5938, "uctantly": 5939, "ĠWednesday": 5940, "tiest": 5941, "ashed": 5942, "Ġprettiest": 5943, "ĠChloe": 5944, "Ġforgi": 5945, "Ġvent": 5946, "Ġparked": 5947, "icky": 5948, "exp": 5949, "Ġproject": 5950, "Ġcamping": 5951, "Ġsoaked": 5952, "zie": 5953, "ĠTiny": 5954, "Ġbarely": 5955, "Ġhorns": 5956, "Ġbouncy": 5957, "icked": 5958, "bies": 5959, "Mar": 5960, "riage": 5961, "hins": 5962, "Ġdiscovering": 5963, "Pete": 5964, "ĠAn": 5965, "ĠBir": 5966, "Ella": 5967, "âĤ¬ÅĵDonÃ¢": 5968, "ĠOnce": 5969, "Bobby": 5970, "Ġeast": 5971, "ĠSure": 5972, "Joey": 5973, "Grandpa": 5974, "Ġtwinkling": 5975, "Ġresult": 5976, "Ġexpect": 5977, "Ġsurface": 5978, "hh": 5979, "Ġsorting": 5980, "Ġdent": 5981, "Ġstole": 5982, "âĤ¬ÅĵWhy": 5983, "Ġwest": 5984, "Ġinterest": 5985, "Ġvowed": 5986, "Ġtexture": 5987, "Ġgazed": 5988, "ĠGr": 5989, "Ġpurred": 5990, "ĠTuesday": 5991, "Ġsteep": 5992, "Ġguys": 5993, "Ġbabies": 5994, "Ġshock": 5995, "Ġbeard": 5996, "Ġmovies": 5997, "ĠCarl": 5998, "ĠRob": 5999, "Ġcautious": 6000, "expected": 6001, "ears": 6002, "zen": 6003, "Ġpowers": 6004, "Ġapplauded": 6005, "Ġsilence": 6006, "Fr": 6007, "thank": 6008, "Ġpebbles": 6009, "ĠBubbles": 6010, "Ġentire": 6011, "Ġloose": 6012, "Ġcontrol": 6013, "Ġtickle": 6014, "Ġguns": 6015, "Ġurged": 6016, "Ġdragons": 6017, "Ġacted": 6018, "Happy": 6019, "\"See": 6020, "Ġdragged": 6021, "Ġunexpected": 6022, "Ġluxury": 6023, "edding": 6024, "Ġcatches": 6025, "Uh": 6026, "ason": 6027, "ern": 6028, "Ġmittens": 6029, "Ġmuscles": 6030, "Ġchewing": 6031, "Ġrocking": 6032, "Ġflat": 6033, "Ġfab": 6034, "Ġdolphins": 6035, "Ġcompleted": 6036, "Ġfabric": 6037, "Ġcurtains": 6038, "Ġemergency": 6039, "Henry": 6040, "Maggie": 6041, "Ġblink": 6042, "Ġintroduced": 6043, "une": 6044, "Ġdirection": 6045, "uly": 6046, "Ġchips": 6047, "\"Do": 6048, "Ġhonk": 6049, "Ġseason": 6050, "Ġpatience": 6051, "Ġstrike": 6052, "Ġimportance": 6053, "eezing": 6054, "Ġreluctantly": 6055, "Ġbank": 6056, "Ġeight": 6057, "Ġslim": 6058, "usted": 6059, "Ġfigured": 6060, "Ġhighest": 6061, "Ġshivered": 6062, "Ġfrozen": 6063, "Ġlibrarian": 6064, "ĠBetty": 6065, "Ġsolution": 6066, "Ġcontest": 6067, "Ġrocked": 6068, "Ġachieve": 6069, "Ġscreaming": 6070, "Ġchases": 6071, "ĠZoom": 6072, "Ġreplac": 6073, "Ġpouring": 6074, "Ġshelves": 6075, "Ġwound": 6076, "ĠJamie": 6077, "Ġtheirs": 6078, "Ġcrumb": 6079, "Ġrubbing": 6080, "esome": 6081, "Ġti": 6082, "Ġhugging": 6083, "Ġdrives": 6084, "\"Sam": 6085, "Ġstaring": 6086, "Ġsorted": 6087, "Ġsnail": 6088, "Ġroaring": 6089, "âĤ¬ÅĵOh": 6090, "ledge": 6091, "Ġinclude": 6092, "-f": 6093, "Fred": 6094, "Ġplanets": 6095, "ĠAnne": 6096, "Ġmater": 6097, "ĠSanta": 6098, "Ġmateri": 6099, "Ġsafer": 6100, "Ġpoliceman": 6101, "Ġcurly": 6102, "Ġsituation": 6103, "Ġfoods": 6104, "fit": 6105, "Ġgreet": 6106, "Ġawesome": 6107, "ĠcanÃ¢": 6108, "Ġusual": 6109, "vin": 6110, "Ġsighs": 6111, "Ġknowledge": 6112, "itely": 6113, "irts": 6114, "Ġpassing": 6115, "Ġshined": 6116, "Ġflags": 6117, "Ġexha": 6118, "Ġdared": 6119, "Ġbalancing": 6120, "Ġplenty": 6121, "ĠyouÃ¢": 6122, "Ġmatched": 6123, "Ġtowels": 6124, "Ġlied": 6125, "ults": 6126, "Ġhomework": 6127, "Leo": 6128, "Ġoutfit": 6129, "though": 6130, "Ġslimy": 6131, "Ġbravery": 6132, "ĠLulu": 6133, "Ġtruly": 6134, "Ġpretends": 6135, "ĠAunt": 6136, "avi": 6137, "Ġzookeeper": 6138, "acob": 6139, "Ġcheering": 6140, "Ġheel": 6141, "\"Because": 6142, "Ġwedding": 6143, "ĠTilly": 6144, "Ġgoals": 6145, "Ġrainbows": 6146, "jamas": 6147, "Ġsausages": 6148, "James": 6149, "Remember": 6150, "cuse": 6151, "ĠHoppy": 6152, "Ġthreat": 6153, "Ġaccomplish": 6154, "ĠMatt": 6155, "Danny": 6156, "ĠSusan": 6157, "Ġpatted": 6158, "Ġcaused": 6159, "Ġpaintings": 6160, "ĠClaire": 6161, "Ġreaching": 6162, "Paul": 6163, "ĠCar": 6164, "Ġresting": 6165, "Ġradishes": 6166, "Ġarguing": 6167, "Ġpacking": 6168, "Excuse": 6169, "bert": 6170, "Ġgrowling": 6171, "Ġblooming": 6172, "ĠAlways": 6173, "Ġspraying": 6174, "Grace": 6175, "Ġfoc": 6176, "Ġwaiter": 6177, "Ġexhausted": 6178, "iar": 6179, "Ġstruggle": 6180, "izzie": 6181, "Ġsweets": 6182, "Ġsticking": 6183, "Kitty": 6184, "Ġpout": 6185, "ences": 6186, "Ġmarkers": 6187, "Ġmotion": 6188, "Ġworker": 6189, "Ġkneeled": 6190, "ĠJessie": 6191, "Ġpaddled": 6192, "ĠLou": 6193, "Ġgrowl": 6194, "Ġsled": 6195, "immer": 6196, "Ġsuitc": 6197, "Ġmane": 6198, "ĠFor": 6199, "Ġsway": 6200, "Ġsnugg": 6201, "Ġstartled": 6202, "ĠMomo": 6203, "Ġcubes": 6204, "aa": 6205, "Ġrescued": 6206, "Ġboo": 6207, "Ġspike": 6208, "Ġwritten": 6209, "Ġdusty": 6210, "Ġtraveled": 6211, "Ġinviting": 6212, "hello": 6213, "Ġexpected": 6214, "Ġbead": 6215, "Ġslap": 6216, "Ġcuts": 6217, "Ġcent": 6218, "Ġbottles": 6219, "Ġmatching": 6220, "Ġguest": 6221, "Ġsinger": 6222, "Ġflavor": 6223, "Ġreveal": 6224, "Sophie": 6225, "Ġlearns": 6226, "!Ċ": 6227, "Ġheav": 6228, "lee": 6229, "eah": 6230, "Ġprincesses": 6231, "Ro": 6232, "Ġcreating": 6233, "Ġregretted": 6234, "Ġfart": 6235, "Ġbloomed": 6236, "Ġtrembling": 6237, "Ġreplaced": 6238, "Ġfir": 6239, "Ġarrive": 6240, "ĠYes": 6241, "Ġmarriage": 6242, "pite": 6243, "Ġrecorded": 6244, "aisies": 6245, "Ġpencils": 6246, "Ġincluded": 6247, "Ġlap": 6248, "Ġchuck": 6249, "Ġobserved": 6250, "Ġdisagree": 6251, "njoy": 6252, "Ġdaisies": 6253, "Ġpots": 6254, "ĠLinda": 6255, "Ġactivities": 6256, "Annie": 6257, "Ġprayer": 6258, "Ġfirm": 6259, "Ġtimer": 6260, "Ġpajamas": 6261, "Charlie": 6262, "Ġroads": 6263, "Ġwires": 6264, "Ġremoved": 6265, "Ġdarkness": 6266, "Ġworries": 6267, "Ġuses": 6268, "\"Ha": 6269, "Ġventured": 6270, "ĠMad": 6271, "Ġcountryside": 6272, "Ġorganizing": 6273, "Ġstare": 6274, "Mrs": 6275, "Ġcompletely": 6276, "uzz": 6277, "ĠBy": 6278, "Ġworkers": 6279, "Ġopening": 6280, "Ġfairies": 6281, "Ġrelief": 6282, "Ġwasted": 6283, "angled": 6284, "Ġleap": 6285, "...": 6286, "Ġreply": 6287, "Ġowners": 6288, "ĠAbby": 6289, "Ġstorekeeper": 6290, "Ready": 6291, "\"Really": 6292, "ĠBo": 6293, "Ġcott": 6294, "Ġbelly": 6295, "ĠSadly": 6296, "vers": 6297, "Ġranger": 6298, "Ġfault": 6299, "aty": 6300, "Ġpartic": 6301, "ĠJohnson": 6302, "Ġunf": 6303, "Goodbye": 6304, "ĠJu": 6305, "Ġquacked": 6306, "Ġpolishing": 6307, "Ġleader": 6308, "Ġstern": 6309, "ora": 6310, "iding": 6311, "lowly": 6312, "Ġbecoming": 6313, "Ġflames": 6314, "Ġlamb": 6315, "ĠJeff": 6316, "Ġkites": 6317, "ctions": 6318, "Ġagrees": 6319, "\"How": 6320, "Ġpoems": 6321, "Ġpenguins": 6322, "ĠwasnÃ¢": 6323, "Afterwards": 6324, "Ġfaced": 6325, "ĠQuack": 6326, "essie": 6327, "ĠOut": 6328, "Ġeverybody": 6329, "Ġseesaw": 6330, "However": 6331, "ĠPinky": 6332, "Ġfolding": 6333, "Ġmelting": 6334, "Ġscales": 6335, "Ġsquealed": 6336, "Ġthro": 6337, "Ġhealed": 6338, "you": 6339, "Ġvanish": 6340, "ĠUnfortunately": 6341, "Ġhelmets": 6342, "Ġwink": 6343, "ĠLuke": 6344, "ĠBoth": 6345, "Ġlogs": 6346, "ĠJones": 6347, "ĠJenna": 6348, "ords": 6349, "Ġcrabs": 6350, "Ġthroat": 6351, "ĠMart": 6352, "\"M": 6353, "hell": 6354, "ĠLeave": 6355, "Ġusually": 6356, "Ġopinion": 6357, "ĠĊĠĊ": 6358, "Ġcrumbs": 6359, "Ġtractor": 6360, "Ġripe": 6361, "Ġdipped": 6362, "opes": 6363, "lings": 6364, "Ġscra": 6365, "Ġseems": 6366, "Ġast": 6367, "Ġlollipops": 6368, "Ġtwinkle": 6369, "Ġcash": 6370, "Ġrisk": 6371, "ĠChrist": 6372, "Ġteaches": 6373, "Ġcomm": 6374, "ĠBye": 6375, "Ġgroceries": 6376, "ĠFollow": 6377, "Ġden": 6378, "\"Tim": 6379, "ids": 6380, "Ġknights": 6381, "ivery": 6382, "asm": 6383, "Ġprovided": 6384, "Ġdentist": 6385, "Ġpolished": 6386, "Ġvalued": 6387, "Ġstaying": 6388, "elle": 6389, "Ġpeeking": 6390, "aze": 6391, "Ġsnakes": 6392, "ĠAdam": 6393, "Ġscru": 6394, "Ġinterested": 6395, "Ġblows": 6396, "Ġrubs": 6397, "ĠWatch": 6398, "Ġcautiously": 6399, "Harry": 6400, "ĠDolly": 6401, "Ġcracked": 6402, "Ġrings": 6403, "Ġunited": 6404, "ophia": 6405, "araway": 6406, "ĠPut": 6407, "Ġfaraway": 6408, "Ġdesert": 6409, "ĠSorry": 6410, "Ġwinked": 6411, "Ġmisses": 6412, "Ġprotecting": 6413, "\"T": 6414, "Alex": 6415, "Ġfreed": 6416, "Ġmarked": 6417, "Ellie": 6418, "Ġyounger": 6419, "Ġwrist": 6420, "Ġcloses": 6421, "Ġwandering": 6422, "mas": 6423, "Ġbalanced": 6424, "Ġchuckled": 6425, "Ġfuzzy": 6426, "Ġforehead": 6427, "Ġlistens": 6428, "Ġpastries": 6429, "Ġsingle": 6430, "ĠKayla": 6431, "Ġsigned": 6432, "go": 6433, "Ġrobb": 6434, "ĠHannah": 6435, "Ġbeads": 6436, "Ġparticular": 6437, "Ġroses": 6438, "Ġboom": 6439, "ĠFox": 6440, "Ġactions": 6441, "Ġdirections": 6442, "Ġhowever": 6443, "âĤ¬ÅĵMommy": 6444, "Ġcopy": 6445, "igi": 6446, "ĠLizzy": 6447, "ĠSuzie": 6448, "Mittens": 6449, "Ġcough": 6450, "Ġsplashes": 6451, "Ġcrackers": 6452, "rance": 6453, "\"Uh": 6454, "aura": 6455, "-oh": 6456, "Ġbaker": 6457, "Ġnaps": 6458, "Ġcous": 6459, "ppers": 6460, "Ġroots": 6461, "Ġfilling": 6462, "Ġsnowballs": 6463, "Ġyesterday": 6464, "âĤ¬ÅĵWhatÃ¢": 6465, "Ġrestored": 6466, "Ġfluttered": 6467, "Ġdelivery": 6468, "Ġrolls": 6469, "abel": 6470, "arling": 6471, "Ġstem": 6472, "Ġconn": 6473, "Ġswooped": 6474, "dies": 6475, "iles": 6476, "Ġgaze": 6477, "Ġsuitcase": 6478, "Ġwiggled": 6479, "Unfortunately": 6480, "Ġtipt": 6481, "ĠNina": 6482, "ilo": 6483, "Ġsomebody": 6484, "ickey": 6485, "Ġbumpy": 6486, "Ġitchy": 6487, "bbly": 6488, "Ġrefle": 6489, "Sandy": 6490, "Ġswirl": 6491, "Ġslam": 6492, "ĠChristmas": 6493, "Ëľ": 6494, "Ġphotos": 6495, "âĤ¬Ëľ": 6496, "oline": 6497, "Ġtwin": 6498, "Ġpastels": 6499, "Ġcelebration": 6500, "Ġtrips": 6501, "Ġpedals": 6502, "Ab": 6503, "ĠPipp": 6504, "atches": 6505, "Ġbacked": 6506, "Ġtallest": 6507, "Ġawake": 6508, "ĠKeep": 6509, "Ġfroze": 6510, "Ġcause": 6511, "Ġcashier": 6512, "Ġnect": 6513, "Ġremote": 6514, "Ġlined": 6515, "Ġdarker": 6516, "Ġdetermination": 6517, "Ġnectar": 6518, "ility": 6519, "\"Or": 6520, "Ġspeaking": 6521, "Ġsecure": 6522, "ormed": 6523, "ĠDoggy": 6524, "ĠMany": 6525, "Ġknees": 6526, "-boo": 6527, "Kate": 6528, "Ġwow": 6529, "ĠFriend": 6530, "\"P": 6531, "Ġpiggy": 6532, "anes": 6533, "Ġcomplaining": 6534, "Ġbars": 6535, "per": 6536, "Yum": 6537, "Ġrecording": 6538, "Ġsneaky": 6539, "Ġsilent": 6540, "Ġvideos": 6541, "oys": 6542, "Ġhealth": 6543, "Ġaccomplishment": 6544, "?'": 6545, "Ġliqu": 6546, "Ġpleasure": 6547, "Ġacting": 6548, "?\",": 6549, "\"Ouch": 6550, "Ġentrance": 6551, "Ġty": 6552, "ĠBird": 6553, "Ġwears": 6554, "Ġrockets": 6555, "Bun": 6556, "Ġdelivered": 6557, "Ġmiles": 6558, "Ġglee": 6559, "Ġinsp": 6560, "Ġhi": 6561, "esmer": 6562, "Ġcoloured": 6563, "Millie": 6564, "Ġopp": 6565, "ĠPrin": 6566, "Ġtricked": 6567, "ĠEnjoy": 6568, "May": 6569, "Ġmesmer": 6570, "ĠBeing": 6571, "\"Not": 6572, "sequ": 6573, "boat": 6574, "Ġcheeks": 6575, "ĠMo": 6576, "yond": 6577, "Ġaff": 6578, "Ġbeyond": 6579, "Ġafterwards": 6580, "Ġnoon": 6581, "Ġsib": 6582, "Ġconsequ": 6583, "Nina": 6584, "Ġhissed": 6585, "Ġstays": 6586, "cited": 6587, "Ġinsects": 6588, "umm": 6589, "Ġglasses": 6590, "ky": 6591, "Ġbowls": 6592, "\"Sp": 6593, "Ġjoking": 6594, "\"There": 6595, "Toby": 6596, "ĠNothing": 6597, "Ġsobbed": 6598, "Ġtickled": 6599, "Ġfarther": 6600, "Fine": 6601, "Ġcolored": 6602, "Ġburst": 6603, "affes": 6604, "Ġscaring": 6605, "Ġstolen": 6606, "Ġattack": 6607, "Ġsense": 6608, "Ġsandcastles": 6609, "Ġtricky": 6610, "Ġrule": 6611, "Ġmasks": 6612, "arter": 6613, "Ġcovers": 6614, "Sh": 6615, "iki": 6616, "Rose": 6617, "Sad": 6618, "Ġdeal": 6619, "ĠĠĊĊ": 6620, "Ġgiraffes": 6621, "Ġinstrum": 6622, "âĤ¬ÅĵCome": 6623, "Ġcalmed": 6624, "Ġhandful": 6625, "Ġtalented": 6626, "ĠSparky": 6627, "Ġpause": 6628, "Ġtangled": 6629, "Ġindeed": 6630, "aren": 6631, "Ġadding": 6632, "Ġsmarter": 6633, "Ġscarves": 6634, "Ġcandies": 6635, "ths": 6636, "ĠJessica": 6637, "Ġlung": 6638, "Ġshirts": 6639, "Ġachieved": 6640, "Ġchoices": 6641, "Ġconsequences": 6642, "Ġliquid": 6643, "ossible": 6644, "Lilly": 6645, "Ġyourselves": 6646, "rious": 6647, "Ġbehavi": 6648, "Ġleading": 6649, "Ġbumps": 6650, "âĤ¬Ċ": 6651, "Ġreads": 6652, "Ġbatteries": 6653, "igers": 6654, "choo": 6655, "Ġhesitated": 6656, "Ġimpossible": 6657, "Ow": 6658, "Ġbadge": 6659, "ĠTara": 6660, "ĠMon": 6661, "ept": 6662, "Ġmi": 6663, "Polly": 6664, "rig": 6665, "Ġpaddle": 6666, "Ġmixture": 6667, "Ġexplorers": 6668, "ĠTwo": 6669, "\"Max": 6670, "Ġdarling": 6671, "iled": 6672, "Ġmagnets": 6673, "lling": 6674, "ĠMel": 6675, "ouch": 6676, "Ġclowns": 6677, "Ġkicks": 6678, "ĠGet": 6679, "Ġrecommended": 6680, "ana": 6681, "Ġweeping": 6682, "Ġgracefully": 6683, "ners": 6684, "Ġexperien": 6685, "ĠCindy": 6686, "ĠLizzie": 6687, "ĠJon": 6688, "Ġseashell": 6689, "Ġseeker": 6690, "Ġbakery": 6691, "Ġfirefighters": 6692, "anging": 6693, "ĠJulia": 6694, "Ġsalty": 6695, "vest": 6696, "brush": 6697, "Ġimproved": 6698, "Ġswept": 6699, "Those": 6700, "atul": 6701, "coat": 6702, "Ġdeserve": 6703, "Ġstroked": 6704, "Ouch": 6705, "uggles": 6706, "ĠPandy": 6707, "Ġflapping": 6708, "Ġwipes": 6709, "Ġbeginning": 6710, "Milly": 6711, "Ġcomplained": 6712, "Ġmushrooms": 6713, "urry": 6714, "ĠJacob": 6715, "ĠEl": 6716, "hee": 6717, "yan": 6718, "Ġhider": 6719, "\"They": 6720, "obody": 6721, "itches": 6722, "ĠSque": 6723, "ĠSqu": 6724, "ĠMickey": 6725, "Ġsteer": 6726, "Ġknocks": 6727, "Ġcust": 6728, "Ġthorn": 6729, "ĠHappy": 6730, "Ġseven": 6731, "Ġcans": 6732, "Bl": 6733, "Ġteased": 6734, "\"L": 6735, "Some": 6736, "Ġobjects": 6737, "Ġparties": 6738, "Days": 6739, "âĤ¬ÅĵDo": 6740, "Ġtravelled": 6741, "Ġthird": 6742, "ĠLarry": 6743, "ĠGigi": 6744, "Ġhearing": 6745, "-t": 6746, "ĠPrincess": 6747, "Ġbasement": 6748, "Ġtigers": 6749, "Ġcupcakes": 6750, "Ġhoriz": 6751, "Ġclick": 6752, "âĤ¬ÅĵYouÃ¢": 6753, "Ġfever": 6754, "Ġsnuck": 6755, "Ġheading": 6756, "Ġseconds": 6757, "Ġdots": 6758, "Ġraincoat": 6759, "tle": 6760, "ĠSnuggles": 6761, "Ġsiblings": 6762, "Ġhorizon": 6763, "elia": 6764, "Ġsmiley": 6765, "Ġperformance": 6766, "Ġcustom": 6767, "ĠPl": 6768, "Ġartist": 6769, "Ġhallway": 6770, "no": 6771, "Ġbeam": 6772, "Ġmarker": 6773, "Ġsnatched": 6774, "Ġlighter": 6775, "Ġyells": 6776, "Ġjackets": 6777, "Ġdrums": 6778, "Ġfluttering": 6779, "indr": 6780, "ĠLena": 6781, "âĤ¬ÅĵHi": 6782, "ans": 6783, "step": 6784, "Ru": 6785, "pare": 6786, "ĠLuckily": 6787, "Ġruining": 6788, "\"The": 6789, "Ġgems": 6790, "Ġbedtime": 6791, "igning": 6792, "ĠwouldnÃ¢": 6793, "Ġraindr": 6794, "Ġwee": 6795, "Ġneither": 6796, "Ġconcer": 6797, "Ġbuying": 6798, "rigued": 6799, "Ġpuppies": 6800, "ĠSlowly": 6801, "Ġlett": 6802, "dri": 6803, "ĠWater": 6804, "ĠWithout": 6805, "Ġpaying": 6806, "Ġscrubbed": 6807, "Ġcelebrating": 6808, "Ġfamilies": 6809, "Ġdollhouse": 6810, "\"Ready": 6811, "Ġannoy": 6812, "âĤ¬ÅĵWow": 6813, "Ġcreamy": 6814, "Ġlettuce": 6815, "band": 6816, "Ġamong": 6817, "umbling": 6818, "Ġpeacefully": 6819, "Ġrivers": 6820, "Ġscratches": 6821, "Ġwrapping": 6822, "Ġwidened": 6823, "Ġdrifted": 6824, "Ġwadd": 6825, "Bobo": 6826, "Ġrumble": 6827, "Rex": 6828, "Ġtasks": 6829, "atur": 6830, "ivity": 6831, "ades": 6832, "Ġtreehouse": 6833, "Ġhides": 6834, "Ġwins": 6835, "Ġrepa": 6836, "Ġbehaved": 6837, "cers": 6838, "Ġrusty": 6839, "alph": 6840, "Ġplayers": 6841, "ĠEverybody": 6842, "ĠwonÃ¢": 6843, "ĠBuzzy": 6844, "Ġlun": 6845, "Dan": 6846, "ĠJazz": 6847, "Tina": 6848, "ael": 6849, "Ġcuddly": 6850, "immering": 6851, "hew": 6852, "Ġuns": 6853, "Ġfact": 6854, "fall": 6855, "\"Sara": 6856, "ounce": 6857, "Ġarrows": 6858, "Ġrewarded": 6859, "Ġwilling": 6860, "\"Is": 6861, "Ġlower": 6862, "Ġneedles": 6863, "Ġsource": 6864, "Ġcreativity": 6865, "Ġshrinking": 6866, "Ġcor": 6867, "Ġlosing": 6868, "Ġtemper": 6869, "Ġech": 6870, "Ġrepaired": 6871, "Ġpassen": 6872, "Ġfears": 6873, "iece": 6874, "Ġgrandpare": 6875, "Ġincluding": 6876, "Ġchoo": 6877, "Ġtiptoed": 6878, "itched": 6879, "Ġcreations": 6880, "Ġtapped": 6881, "ĠAbbie": 6882, "Ġgrassy": 6883, "Ġchefs": 6884, "Clara": 6885, "ongr": 6886, "ĠGoodbye": 6887, "Ġdef": 6888, "ded": 6889, "Ġminerals": 6890, "jo": 6891, "Ġseparated": 6892, "ĠEmmy": 6893, "Ġsprinkled": 6894, "Ġrising": 6895, "Ġimagining": 6896, "ĠJune": 6897, "Ġgranted": 6898, "ichael": 6899, "Ġchop": 6900, "Ġaud": 6901, "Ġgross": 6902, "ĠRock": 6903, "Ġtempt": 6904, "Ġaren": 6905, "Great": 6906, "ĠLaura": 6907, "ĠSophia": 6908, "\"Run": 6909, "\"Did": 6910, "Ġswimsuit": 6911, "ongratul": 6912, "imon": 6913, "ĠZip": 6914, "Ġtiss": 6915, "Ġpans": 6916, "Ġlimes": 6917, "hog": 6918, "Ġstomped": 6919, "\"Spot": 6920, "Ġscrewdri": 6921, "Ġcoup": 6922, "Ġgrabbing": 6923, "ĠPo": 6924, "Ġpouted": 6925, "Ġbackwards": 6926, "Ġspong": 6927, "itude": 6928, "Ġdecorating": 6929, "âĤ¬ÅĵMy": 6930, "Ġdamage": 6931, "ishy": 6932, "Ġhesitant": 6933, "Ġearn": 6934, "Ġprinting": 6935, "Ġpeppers": 6936, "Ġtodd": 6937, "Ġstung": 6938, "âĤ¬.ĊĊ": 6939, "Ġsquares": 6940, "Ġunpacked": 6941, "ments": 6942, "Ġtramp": 6943, "ntil": 6944, "Ġslower": 6945, "Ġcowb": 6946, "Ġdiving": 6947, "Ġplanning": 6948, "Ġbeloved": 6949, "Ġonions": 6950, "Ġmaterials": 6951, "Ġheavier": 6952, "Ġchip": 6953, "ĠJay": 6954, "ĠOlive": 6955, "Ġgrowls": 6956, "Ġraindrops": 6957, "Ġwrink": 6958, "Ġmer": 6959, "Ġpointy": 6960, "ĠRemember": 6961, "Ġsnowmen": 6962, "cope": 6963, "Ġsurroundings": 6964, "Ġpromises": 6965, "Ġavoid": 6966, "Ġscrewdriver": 6967, "Pat": 6968, "\"Your": 6969, "Ġrecipe": 6970, "Ġaudience": 6971, "Ġsailboat": 6972, "Ġcousin": 6973, "ae": 6974, "Ġrustling": 6975, "Ġforgiven": 6976, "Ġneighbours": 6977, "Ġblocking": 6978, "Que": 6979, "Ġcenter": 6980, "kend": 6981, "Ġslices": 6982, "Ġgobbled": 6983, "eds": 6984, "Ġwiping": 6985, "Ġweekend": 6986, "Ġtemperature": 6987, "Ġtouc": 6988, "Ġhedgehog": 6989, "Ġtrampoline": 6990, "Queen": 6991, "int": 6992, "Ġrefu": 6993, "Ġarr": 6994, "Ġhelpers": 6995, "Ġwobbled": 6996, "Bill": 6997, "Ġrip": 6998, "Ġwindy": 6999, "For": 7000, "Katie": 7001, "pr": 7002, "Ġcouple": 7003, "Ġstool": 7004, "Ġdiscussed": 7005, "ushing": 7006, "ĠPam": 7007, "sty": 7008, "Fo": 7009, "Ġdesigned": 7010, "ĠEarth": 7011, "Ġornaments": 7012, "Ġdreamt": 7013, "itted": 7014, "Ġnoses": 7015, "Ġcorners": 7016, "ĠStella": 7017, "yes": 7018, "ĠEls": 7019, "10": 7020, "child": 7021, "Ġpecked": 7022, "Ġslammed": 7023, "uzzy": 7024, "unched": 7025, "Ġswans": 7026, "Ġafford": 7027, "iley": 7028, "Ġhus": 7029, "Ew": 7030, "ĠRobby": 7031, "Ġfeast": 7032, "Ġsports": 7033, "Ġhitting": 7034, "oey": 7035, "Ġage": 7036, "ĠDr": 7037, "Ġstreets": 7038, "ably": 7039, "Ġwag": 7040, "Ġtissue": 7041, "Ġdads": 7042, "Ġache": 7043, "Ġaside": 7044, "ĠMira": 7045, "ccoon": 7046, "cl": 7047, "Ġraccoon": 7048, "Ġsponge": 7049, "Ġstain": 7050, "Ġrequested": 7051, "Ġmeals": 7052, "Tr": 7053, "Ġcuriously": 7054, "Ġforks": 7055, "Ġsunflowers": 7056, "Ġreflection": 7057, "Ġsnowfl": 7058, "arrow": 7059, "Ġwarnings": 7060, "Ġtails": 7061, "ĠNick": 7062, "Ġdances": 7063, "Ġprett": 7064, "Ġplans": 7065, "Ha": 7066, "Jul": 7067, "Ġbows": 7068, "ido": 7069, "Ġvanilla": 7070, "Ġshaped": 7071, "Ġfamiliar": 7072, "ĠBinky": 7073, "Ġsparks": 7074, "Ġdet": 7075, "ĠRobert": 7076, "--": 7077, "Baby": 7078, "ĠSc": 7079, "cky": 7080, "Ġgri": 7081, "Ġleaning": 7082, "Ġdollars": 7083, "Fin": 7084, "Ġcoloring": 7085, "Ġremembering": 7086, "Ġadult": 7087, "Ġbreathed": 7088, "Ġintrigued": 7089, "Ġgreeted": 7090, "ne": 7091, "Ġsale": 7092, "Ġscrews": 7093, "using": 7094, "Ġgrandchild": 7095, "ition": 7096, "Ġduckling": 7097, "Maria": 7098, "Ġforgets": 7099, "Ġspreading": 7100, "osen": 7101, "Ġgasp": 7102, "Ġchosen": 7103, "Ġastron": 7104, "Ġthrown": 7105, "Ġshops": 7106, "ĠBee": 7107, "ĠThose": 7108, "Ġprettier": 7109, "Ġtwice": 7110, "Ġpraying": 7111, "ĠRyan": 7112, "Ġtunnels": 7113, "ĠGranny": 7114, "aker": 7115, "Ġhour": 7116, "Ġpotion": 7117, "ĠTess": 7118, "Ġenthusi": 7119, "llen": 7120, "Ġtouches": 7121, "Ġastronaut": 7122, "-bye": 7123, "Ġswords": 7124, "ĠQueen": 7125, "Ġenthusiasm": 7126, "Ġhusband": 7127, "arac": 7128, "Ġsailors": 7129, "ertain": 7130, "Ġgardener": 7131, "otten": 7132, "Ġmoo": 7133, "endy": 7134, "Ġhops": 7135, "Ġzipping": 7136, "Ġspikes": 7137, "Ġsuperheroes": 7138, "Ġcorre": 7139, "Ġreason": 7140, "Yuck": 7141, "Ġmagician": 7142, "Ġwishing": 7143, "Ġdaring": 7144, "Ġspoonful": 7145, "Ġgrandparents": 7146, "mallow": 7147, "Ġleast": 7148, "ĠBluey": 7149, "Ġmarsh": 7150, "Ġskunk": 7151, "Ġreass": 7152, "ĠOur": 7153, "ĠThanks": 7154, "Ġchanging": 7155, "Ġdod": 7156, "ĠNobody": 7157, "Ġborrowed": 7158, "Ġscamp": 7159, "Ġcounts": 7160, "\"Now": 7161, "Ġpens": 7162, "Ġflight": 7163, "Ġforgetting": 7164, "Ġrotten": 7165, "ĠChris": 7166, "Ġbodies": 7167, "Ġencourag": 7168, "Ġflavors": 7169, "Ġguests": 7170, "Ġhopeful": 7171, "ently": 7172, "Ġneare": 7173, "ĠAbi": 7174, "Ġwoof": 7175, "ĠFinn": 7176, "ounced": 7177, "Ġsnuggle": 7178, "Ġmesmerized": 7179, "Ġsending": 7180, "ĠFriends": 7181, "Ġheroes": 7182, "Ġcharac": 7183, "Ġcharacter": 7184, "Ġmuscle": 7185, "stick": 7186, "\"Shh": 7187, "ĠRover": 7188, "oni": 7189, "ĠMilo": 7190, "Ġbuzzed": 7191, "Frank": 7192, "ĠSqueaky": 7193, "Ste": 7194, "Ġseaw": 7195, "Ġneatly": 7196, "Ġgrows": 7197, "ĠCra": 7198, "ĠMikey": 7199, "wk": 7200, "Ġwraps": 7201, "Ġsteady": 7202, "Ġposs": 7203, "Ġnibb": 7204, "Ġfeeding": 7205, "\"Mmm": 7206, "ĠUntil": 7207, "\"Yeah": 7208, "Ġmarshmallow": 7209, "Ġge": 7210, "ĠListen": 7211, "Ġhandsome": 7212, "Ġcond": 7213, "Ġmints": 7214, "irrel": 7215, "Ġdelivering": 7216, "Ġnine": 7217, "Ġoh": 7218, "antha": 7219, "Ġdived": 7220, "bba": 7221, "Ġpolitely": 7222, "An": 7223, "Ġzebras": 7224, "Really": 7225, "Ġonward": 7226, "Ruby": 7227, "Ġalien": 7228, "Ġsuffering": 7229, "Blue": 7230, "Ġnapkins": 7231, "Ġwarmer": 7232, "-sh": 7233, "Pe": 7234, "armer": 7235, "years": 7236, "-years": 7237, "Ġsneezing": 7238, "Ġbaths": 7239, "Ġhonked": 7240, "Time": 7241, "Have": 7242, "fly": 7243, "Ġplain": 7244, "opsy": 7245, "Ġdefe": 7246, "Ġplucked": 7247, "Ġcrashing": 7248, "Tweety": 7249, "Ġmatters": 7250, "Ġembarrass": 7251, "Ġposter": 7252, "ection": 7253, "ĠthatÃ¢": 7254, "meal": 7255, "Ġlifts": 7256, "Ġrefreshing": 7257, "âĤ¬ÅĵMom": 7258, "Ġunsure": 7259, "Ġseaweed": 7260, "Ġlungs": 7261, "ĠBirthday": 7262, "Ġstudents": 7263, "Ġincreased": 7264, "By": 7265, "ĠJudy": 7266, "Ġcrew": 7267, "Ġjoining": 7268, "Ġstands": 7269, "\"V": 7270, "Ġtoddler": 7271, "Ġoatmeal": 7272, "ĠEx": 7273, "ĠMartha": 7274, "Ġscen": 7275, "allowed": 7276, "Ġproper": 7277, "Ġpreparing": 7278, "Ġswallowed": 7279, "Ġdip": 7280, "Ġglued": 7281, "Ġthud": 7282, "âĤ¬ÅĵBut": 7283, "Ġexpress": 7284, "Ġwhispers": 7285, "Ġrespond": 7286, "aster": 7287, "\"Mama": 7288, "Ġwatering": 7289, "Ġamount": 7290, "Ġdie": 7291, "Ġropes": 7292, "ĠStar": 7293, "Ġperformed": 7294, "Ġtoaster": 7295, "Ġstarfish": 7296, "ĠHoot": 7297, "Ġleads": 7298, "Ġtrembled": 7299, "Ġpresses": 7300, "Ġwobbly": 7301, "Ġtriangles": 7302, "Miss": 7303, "Sadly": 7304, "Ġhawk": 7305, "Ġlessons": 7306, "Ġcushions": 7307, "Ġbiting": 7308, "while": 7309, "Ġpostman": 7310, "Ġgeese": 7311, "âĤ¬ÅĵWell": 7312, "Ġdancers": 7313, "Ġpops": 7314, "Nemo": 7315, "Ġpuff": 7316, "Ġtalks": 7317, "Ġsniffs": 7318, "Ġresisted": 7319, "Ġfocused": 7320, "Ġscraped": 7321, "Su": 7322, "Ġmerry": 7323, "Ġbully": 7324, "Ġadults": 7325, "Ġpanicked": 7326, "Ġconfl": 7327, "Back": 7328, "Ġrushing": 7329, "Ġnecklaces": 7330, "Ġfreedom": 7331, "vant": 7332, "Ġflas": 7333, "ĠMaya": 7334, "Ġpuppet": 7335, "\"Dad": 7336, "Ġsofter": 7337, "Ġslips": 7338, "ĠKiki": 7339, "Ġfirmly": 7340, "Ġwaddled": 7341, "the": 7342, "Ġtrot": 7343, "\"Ro": 7344, "iona": 7345, "Ducky": 7346, "ados": 7347, "Ġjoyful": 7348, "Ġfirefly": 7349, "Ġencouraging": 7350, "\"Bad": 7351, "Ġtested": 7352, "Ġwrigg": 7353, "Ġdropping": 7354, "ĠSun": 7355, "âĤ¬ÅĵWhere": 7356, "Ġdrawers": 7357, "Ġfrowning": 7358, "onna": 7359, "Ġtables": 7360, "Ġwaterfall": 7361, "Ġworn": 7362, "Ġwiggle": 7363, "fia": 7364, "ĠZoey": 7365, "Ġev": 7366, "Ġblast": 7367, "Ġnervously": 7368, "Ġfaded": 7369, "rey": 7370, "Ġlifting": 7371, "Ġscampered": 7372, "Ġrout": 7373, "Ġdrivers": 7374, "Ġhumans": 7375, "ippy": 7376, "lets": 7377, "Ġspat": 7378, "Ġexplo": 7379, "ĠOnly": 7380, "Ġappreciation": 7381, "Ġpours": 7382, "Ġfirefighter": 7383, "Ġrobber": 7384, "Ġdrawn": 7385, "Wh": 7386, "Ġsqueak": 7387, "Ġthoughts": 7388, "Ġpennies": 7389, "Ġrespected": 7390, "Ġquarreling": 7391, "Ġpigeons": 7392, "Ġthroughout": 7393, "Ġtwinkled": 7394, "Ġleapt": 7395, "Whee": 7396, "retty": 7397, "Ġocc": 7398, "ĠAlong": 7399, "Ġstacked": 7400, "ĠLove": 7401, "Woof": 7402, "Ġdresser": 7403, "Br": 7404, "cake": 7405, "ĠThatÃ¢": 7406, "rrr": 7407, "ĠFrosty": 7408, "Ġscient": 7409, "Ġfits": 7410, "Bet": 7411, "Ġcoc": 7412, "ĠStay": 7413, "ĠJanie": 7414, "Ġmaster": 7415, "Ġscientist": 7416, "anwhile": 7417, "bird": 7418, "roken": 7419, "but": 7420, "now": 7421, "eal": 7422, "Ġbravest": 7423, "Ġavocados": 7424, "Ġovercome": 7425, "Ġstrongest": 7426, "Ġmonths": 7427, "Tw": 7428, "Ġelf": 7429, "Ġpolar": 7430, "Ġplaytime": 7431, "Ġsan": 7432, "ĠBaa": 7433, "Ġnotes": 7434, "Ġgonna": 7435, "ĠAsh": 7436, "ĠTodd": 7437, "Ġnur": 7438, "fire": 7439, "Ġcertain": 7440, "ĠTake": 7441, "Ġmanag": 7442, "Ġwept": 7443, "Mimi": 7444, "ĠMeg": 7445, "Ġnood": 7446, "Ġmunch": 7447, "Ġspins": 7448, "Ġscored": 7449, "Ġcolder": 7450, "Ġechoed": 7451, "bage": 7452, "Ġcosy": 7453, "Ġconvers": 7454, "Ġwakes": 7455, "ĠSquirrel": 7456, "ĠMarie": 7457, "Ġgarbage": 7458, "Ġplayroom": 7459, "\"Roar": 7460, "Ġdesigns": 7461, "Ġperforming": 7462, "Tony": 7463, "urious": 7464, "ĠFrog": 7465, "plash": 7466, "eezes": 7467, "-s": 7468, "Yummy": 7469, "Ġpeck": 7470, "Ġprob": 7471, "Ġsank": 7472, "Ġflown": 7473, "ĠSadie": 7474, "Ġtricycle": 7475, "ĠFido": 7476, "Ġsweetest": 7477, "Ġprove": 7478, "Ġforgiving": 7479, "Ġprobably": 7480, "Ġmarshmallows": 7481, "Ah": 7482, "Ġgest": 7483, "Ġbehaving": 7484, "ca": 7485, "cher": 7486, "iment": 7487, "Ġpumpkins": 7488, "oke": 7489, "ĠJacky": 7490, "ĠBessie": 7491, "rying": 7492, "Ġexplorer": 7493, "Ġguide": 7494, "please": 7495, "Ġsqueezing": 7496, "Ġrobots": 7497, "Ġsadd": 7498, "Ġtossed": 7499, "âĤ¬ÅĵIf": 7500, "Ġblinking": 7501, "ĠQuick": 7502, "bbling": 7503, "Ġcausing": 7504, "Kim": 7505, "Ġbells": 7506, "undred": 7507, "Ġshown": 7508, "Ġcobwebs": 7509, "âĤ¬ÅĵOkay": 7510, "espite": 7511, "ammy": 7512, "urprise": 7513, "Ġsquishy": 7514, "broken": 7515, "Ġspices": 7516, "Ġhaird": 7517, "ĠFire": 7518, "Ġpassengers": 7519, "Ġcongratul": 7520, "Ġcraft": 7521, "\"He": 7522, "Ġties": 7523, "fus": 7524, "Ġtighter": 7525, "Ġhealing": 7526, "ĠZara": 7527, "Ġmate": 7528, "Ġangels": 7529, "Ġyielded": 7530, "Our": 7531, "Mad": 7532, "ading": 7533, "Ġreversed": 7534, "ilda": 7535, "Ġpound": 7536, "David": 7537, "Ġaimed": 7538, "Follow": 7539, "Ġnapping": 7540, "\"C": 7541, "ĠFarmer": 7542, "Quick": 7543, "Even": 7544, "Ġgiggles": 7545, "upt": 7546, "Ġnearly": 7547, "Ġpays": 7548, "ĠOwl": 7549, "Ġoffic": 7550, "ĠChe": 7551, "During": 7552, "Ġunw": 7553, "Ġdistract": 7554, "Ġkittens": 7555, "Ġinstruments": 7556, "Ġwider": 7557, "ĠMouse": 7558, "Ġreun": 7559, "mates": 7560, "aying": 7561, "Ġsewing": 7562, "alloween": 7563, "Ġtil": 7564, "Ġnuzz": 7565, "Ġdoorway": 7566, "Ġconflict": 7567, "Ġclues": 7568, "ĠUnder": 7569, "Ġappreciated": 7570, "Ġinj": 7571, "Ġpaintbrush": 7572, "ĠSimon": 7573, "Ġbrushing": 7574, "Ġcoug": 7575, "Ġshoo": 7576, "Ġgrandd": 7577, "Ġaction": 7578, "Ġyum": 7579, "\"Yum": 7580, "Ġease": 7581, "Ġloading": 7582, "Ġbru": 7583, "Ġpassports": 7584, "ancy": 7585, "Ġcottage": 7586, "onies": 7587, "ĠHalloween": 7588, "ĠJackie": 7589, "Ġpaths": 7590, "\"Mia": 7591, "Ġheartbroken": 7592, "Ġais": 7593, "Ġblocked": 7594, "Ġmerma": 7595, "ĠMabel": 7596, "Ġlaying": 7597, "Jerry": 7598, "Ġslipping": 7599, "ĠLi": 7600, "ino": 7601, "Ġsweep": 7602, "Ġresults": 7603, "Ġanger": 7604, "Ġbelts": 7605, "Ġrepeating": 7606, "\"Ah": 7607, "Ġpins": 7608, "Ġfigures": 7609, "eel": 7610, "Ġbits": 7611, "isc": 7612, "Ġevil": 7613, "Ġsoaking": 7614, "antastic": 7615, "ĠTuna": 7616, "idey": 7617, "Ġmailed": 7618, "Ġwithin": 7619, "asty": 7620, "Ġtwisty": 7621, "Ġtwisting": 7622, "ĠWell": 7623, "Ġsuffered": 7624, "Ġstroll": 7625, "ĠPatch": 7626, "Ġtuck": 7627, "Ġconnected": 7628, "ĠWendy": 7629, "Ġpuzzled": 7630, "âĤ¬,": 7631, "Ġshovels": 7632, "Ġbuses": 7633, "ĠAli": 7634, "Ġaccomplished": 7635, "Ġdamaged": 7636, "Ġnoodles": 7637, "Ġund": 7638, "Ġcrossing": 7639, "Ġhundred": 7640, "ĠMichael": 7641, "ighting": 7642, "Ġbreathing": 7643, "Ġsever": 7644, "Ġlicking": 7645, "Ġbehavior": 7646, "Ġroars": 7647, "Ġseveral": 7648, "Ġtying": 7649, "Ġshrug": 7650, "Ġresponsib": 7651, "Ġbracelets": 7652, "Ġsurfing": 7653, "Ġsurrendered": 7654, "Ġrisks": 7655, "Ġfinishing": 7656, "ĠRalph": 7657, "Ġdespite": 7658, "Ġfleas": 7659, "ĠAmelia": 7660, "Ġtoward": 7661, "anie": 7662, "âĤ¬ÅĵPlease": 7663, "Ġencount": 7664, "Ġsweat": 7665, "Ġlending": 7666, "da": 7667, "Ġstreamers": 7668, "Ġhairdress": 7669, "Ġhumming": 7670, "Ġdefin": 7671, "byes": 7672, "lves": 7673, "Ġsupported": 7674, "!'ĊĊ": 7675, "Ġshady": 7676, "Ġoysters": 7677, "Ġcleaner": 7678, "Ġquieter": 7679, "Ġawoke": 7680, "Ġgoodbyes": 7681, "Ġwhose": 7682, "Whenever": 7683, "Ġluckily": 7684, "Ted": 7685, "ĠBubba": 7686, "ĠRobbie": 7687, "âĤ¬ÅĵOf": 7688, "ĠRay": 7689, "Ġignoring": 7690, "Steve": 7691, "Ġstitches": 7692, "Ġrainy": 7693, "ĠHoney": 7694, "Ġrather": 7695, "isions": 7696, "Ġponies": 7697, "Ġtablet": 7698, "Ġedges": 7699, "Ġcuddles": 7700, "Abigail": 7701, "ĠFlopsy": 7702, "ĠMaddie": 7703, "Ġfantastic": 7704, "unity": 7705, "dding": 7706, "ecca": 7707, "found": 7708, "erk": 7709, "Ġslither": 7710, "Ġcloudy": 7711, "Ġfrowns": 7712, "Or": 7713, "ening": 7714, "\"Excuse": 7715, "Ġhanding": 7716, "Ġfinal": 7717, "Ġsnowflakes": 7718, "ppies": 7719, "Ġsped": 7720, "Ġdrown": 7721, "agic": 7722, "Ġelbow": 7723, "Ġhairdresser": 7724, "Ġcotton": 7725, "ĠHolly": 7726, "Ġthorns": 7727, "ĠBirdy": 7728, "Ġdefinitely": 7729, "Ġcoral": 7730, "Ġrains": 7731, "iel": 7732, "Ġgesture": 7733, "Ġkings": 7734, "Ġsmallest": 7735, "Ġsurv": 7736, "Ġsy": 7737, "Ġreminding": 7738, "Ġwisely": 7739, "ĠFuzzy": 7740, "âĤ¬ÅĵNow": 7741, "Ġbattle": 7742, "ĠBecause": 7743, "ĠGreen": 7744, "Ġcorrectly": 7745, "Ġvines": 7746, "crow": 7747, "Ġdecisions": 7748, "Ġdriveway": 7749, "ĠUp": 7750, "\"And": 7751, "Ġsou": 7752, "onnie": 7753, "athy": 7754, "Ġpeeled": 7755, "Ġnewfound": 7756, "Ġsqueaked": 7757, "Ġchopped": 7758, "Ġsharks": 7759, "Boo": 7760, "Ġprick": 7761, "Ġstudent": 7762, "Ġsnort": 7763, "Ġwarri": 7764, "Ġgrandson": 7765, "Poppy": 7766, "Ġsymbols": 7767, "Ġweeds": 7768, "Hannah": 7769, "Ġsimply": 7770, "Ġfishes": 7771, "hil": 7772, "rie": 7773, "ĠX": 7774, "Ġbandages": 7775, "abby": 7776, "Ġgranddaughter": 7777, "Ġwobble": 7778, "onse": 7779, "Ġresponse": 7780, "Ġnasty": 7781, "Ġexcept": 7782, "ĠKaren": 7783, "Ġexercises": 7784, "Ġstopping": 7785, "steps": 7786, "Ġtar": 7787, "ĠFreddie": 7788, "cent": 7789, "Ġoccas": 7790, "elie": 7791, "Ġafar": 7792, "Ġbanged": 7793, "ĠRocky": 7794, "Ġdarl": 7795, "Ġni": 7796, "Ġinspired": 7797, "Ġdarlings": 7798, "\"F": 7799, "Ġtravels": 7800, "\"G": 7801, "father": 7802, "Ġtipped": 7803, "Ġdisturbing": 7804, "Ġfills": 7805, "Ġmasterp": 7806, "Ġlent": 7807, "Adam": 7808, "Ġflipped": 7809, "âĤ¬ÅĵHey": 7810, "Ġfootsteps": 7811, "worm": 7812, "Ġpedaled": 7813, ",ĊĊ": 7814, "line": 7815, "Ġbirdhouse": 7816, "Ġwindowsill": 7817, "Ġpurr": 7818, "Ġspits": 7819, "Ġtravelling": 7820, "ĠPippin": 7821, "Ġships": 7822, "Ġconvin": 7823, "Ġpresented": 7824, "Ġscarecrow": 7825, "ĠAlthough": 7826, "Jamie": 7827, "sol": 7828, "Ġaddress": 7829, "Ġpunishment": 7830, "Thomas": 7831, "Ġplanting": 7832, "Ġapologised": 7833, "citedly": 7834, "mered": 7835, "Ġchocolates": 7836, "Ġantic": 7837, "eeling": 7838, "ĠWelcome": 7839, "Ġforests": 7840, "ĠRuth": 7841, "Alright": 7842, "Ġsurfboard": 7843, "ms": 7844, "Ġcongratulated": 7845, ".'ĊĊ": 7846, "ĠIm": 7847, "ddie": 7848, "utter": 7849, "Ġarranged": 7850, "Ġbelieving": 7851, "ĠMegan": 7852, "Ġreassured": 7853, "\"Oops": 7854, "Ġtrotted": 7855, "Ġreunited": 7856, "Ġnodding": 7857, "Ġencouragement": 7858, "Ġcheers": 7859, "Ġlies": 7860, "Ġimages": 7861, "Ġpoppies": 7862, "Ġreapp": 7863, "Ġcampfire": 7864, "iza": 7865, "Ġsuits": 7866, "Ġbusiness": 7867, "Ġclerk": 7868, "ĠSpidey": 7869, "Ġtarget": 7870, "ooky": 7871, "ĠJojo": 7872, "Ġmarve": 7873, "Ġsails": 7874, "Ġmagnif": 7875, "whe": 7876, "issa": 7877, "perate": 7878, "Josh": 7879, "Ġofficers": 7880, "Ġterrified": 7881, "Ġbackpacks": 7882, "manda": 7883, "ĠGina": 7884, "Ġgrip": 7885, "Ġcovering": 7886, "-go": 7887, "Ġyel": 7888, "Ġknots": 7889, "Ġfocus": 7890, "Ġactivity": 7891, "ĠAng": 7892, "Since": 7893, "inkle": 7894, "True": 7895, "Ġyelped": 7896, "Ġsurprising": 7897, "Ġwrinkled": 7898, "Ġsmelling": 7899, "Ġexpert": 7900, "ris": 7901, "Ġmood": 7902, "Ġmasterpiece": 7903, "Ġdep": 7904, "ider": 7905, "ĠFighting": 7906, "otte": 7907, "Ġchanges": 7908, "Ġconcert": 7909, "Ġchilly": 7910, "Ġspills": 7911, "Ġspeeding": 7912, "Ġtesting": 7913, "ĠSnowman": 7914, "Ġtasting": 7915, "Ġbraver": 7916, "Ġpleaded": 7917, "Ġsniffing": 7918, "Ġgears": 7919, "artled": 7920, "ĠLia": 7921, "Ġcomforting": 7922, "Ġdelayed": 7923, "ĠOkay": 7924, "Ġcalmly": 7925, "we": 7926, "ats": 7927, "acle": 7928, "Jess": 7929, "acles": 7930, "asha": 7931, "Ġlabels": 7932, "arlotte": 7933, "Ġmermaid": 7934, "Ġsuggestion": 7935, "Ġaware": 7936, "ĠAny": 7937, "ĠRain": 7938, "Ġdiscussing": 7939, "Ġstumble": 7940, "Ġjars": 7941, "Ġspies": 7942, "-p": 7943, "Ġbelongings": 7944, "Ġmischie": 7945, "Ġworrying": 7946, "Ġmagazines": 7947, "Ġbothering": 7948, "flies": 7949, "Ġcrowns": 7950, "Ġartwork": 7951, "Ġalthough": 7952, "Ġunderstands": 7953, "Ġdisplayed": 7954, "ĠLouise": 7955, "Ġmischievous": 7956, "Penny": 7957, "ails": 7958, "Chloe": 7959, "Mat": 7960, "Ġpuck": 7961, "ĠTry": 7962, "Ġadmiration": 7963, "Ġefforts": 7964, "screen": 7965, "Ġburying": 7966, "Ġheight": 7967, "Ġfoxes": 7968, "emma": 7969, "Ġunfortunately": 7970, "pen": 7971, "Ġsav": 7972, "Ġrefuse": 7973, "Ġseller": 7974, "Bunny": 7975, "Ġhoo": 7976, "Ġbaskets": 7977, "Ġtoolbox": 7978, "rier": 7979, "Ġbuddy": 7980, "ighing": 7981, "Ġbitten": 7982, "ĠAlly": 7983, "Ġexperienced": 7984, "Ġdecl": 7985, "Ġbless": 7986, "inted": 7987, "Ġque": 7988, "vroom": 7989, "Ġdragonfly": 7990, "ĠDavey": 7991, "Ġvehicles": 7992, "wise": 7993, "what": 7994, "Ġpackages": 7995, "Ġdisc": 7996, "Ġsolving": 7997, "Ġdump": 7998, "ibbit": 7999, "ugging": 8000, "Ġpandas": 8001, "Mira": 8002, "ĠWally": 8003, "Ġannoyed": 8004, "bell": 8005, "Ġtumbled": 8006, "Ġmomma": 8007, "Ġmemb": 8008, "ipes": 8009, "aturday": 8010, "Ġmembers": 8011, "Ġseashells": 8012, "Ġfires": 8013, "âĤ¬ÅĵThe": 8014, "Ġposit": 8015, "Ġwarmly": 8016, "Ġwealth": 8017, "Ġnibbled": 8018, "ĠSaturday": 8019, "Ġsunscreen": 8020, "ĠSofia": 8021, "ĠWil": 8022, "aint": 8023, "Ġpeas": 8024, "Ġtreated": 8025, "Ġtroubles": 8026, "Ġsquaw": 8027, "Ġrotting": 8028, "ĠEva": 8029, "Ke": 8030, "Ġscent": 8031, "Ġmaterial": 8032, "âĤ¬ÅĵSure": 8033, "ĠFroggy": 8034, "Ġconqu": 8035, "Meanwhile": 8036, "Ġstomp": 8037, "Ġgazing": 8038, "Ġcoach": 8039, "ĠKaty": 8040, "Ġinsisting": 8041, "Beth": 8042, "Ġuntied": 8043, "Dear": 8044, "Ġdiso": 8045, "Ġprayers": 8046, "ĠOther": 8047, "Ġenviron": 8048, "Ġparted": 8049, "Ġconversation": 8050, "ĠDory": 8051, "Quack": 8052, "Joy": 8053, "aver": 8054, "Ġcollap": 8055, "Ġencountered": 8056, "Ġjoins": 8057, "Ġloops": 8058, "Rachel": 8059, "Ġraces": 8060, "ĠPen": 8061, "Ġsewed": 8062, "Ġsill": 8063, "Ġteachers": 8064, "Ġenvironment": 8065, "Ġscurrying": 8066, "ĠSamantha": 8067, "attered": 8068, "Ġwhispering": 8069, "Ġjoked": 8070, "Ġargum": 8071, "Ġpurpose": 8072, "ĠPippa": 8073, "Ġtilted": 8074, "-round": 8075, "Ġstored": 8076, "Ġorders": 8077, "Ġloses": 8078, "Ġexch": 8079, "ortunately": 8080, "Ġhoops": 8081, "Ġgenie": 8082, "Ġcowboy": 8083, "Take": 8084, "ppa": 8085, "Ġsheets": 8086, "Ġspooky": 8087, "Ġtweet": 8088, "ĠFlo": 8089, "ĠPepper": 8090, "aven": 8091, "ĠDuck": 8092, "ĠDog": 8093, "Ġtoss": 8094, "order": 8095, "Ġpermitted": 8096, "airy": 8097, "Ġquarre": 8098, "eedy": 8099, "uel": 8100, "Ġaim": 8101, "ongo": 8102, "ĠFiona": 8103, "Ġdiamonds": 8104, "Ġscram": 8105, "Ġtype": 8106, "iscuit": 8107, "Ġpupils": 8108, "Ġanticip": 8109, "Yeah": 8110, "Ġglittering": 8111, "Ġtrans": 8112, "Ġqueens": 8113, "Ġturtles": 8114, "illiam": 8115, "Ġbeaming": 8116, "Ġnearest": 8117, "ĠDespite": 8118, "Ġends": 8119, "ĠSnowball": 8120, "Ġtubes": 8121, "Ġmaker": 8122, "igger": 8123, "Ġservant": 8124, "âĤ¬ÅĵSee": 8125, "Ġwhimp": 8126, "Ġdonkey": 8127, "Ġvisitors": 8128, "Ġfilms": 8129, "Ġspells": 8130, "Ġopport": 8131, "Ġgap": 8132, "Ġuntie": 8133, "ĠHope": 8134, "Ġcleared": 8135, "Ġfins": 8136, "Ġstroke": 8137, "Ġrin": 8138, "ĠAuntie": 8139, "ĠBounce": 8140, "Ġtapping": 8141, "Ġoppos": 8142, "Ġwasting": 8143, "Ġcustomers": 8144, "Ġnurses": 8145, "usty": 8146, "Ġpriz": 8147, "Ġswo": 8148, "Ġshall": 8149, "Ġhunters": 8150, "Ġger": 8151, "Ġconvinced": 8152, "Ġwounds": 8153, "Ġswollen": 8154, "Ġgoats": 8155, "Ġsweaty": 8156, "Ġdressing": 8157, "Ġslowed": 8158, "Ġdeclared": 8159, "Ġdot": 8160, "Ġexamining": 8161, "orter": 8162, "elope": 8163, "ĠBow": 8164, "Ġopposite": 8165, "Ġcharacters": 8166, "ilities": 8167, "Ġfailed": 8168, "\"Rex": 8169, "ĠQuackers": 8170, "Am": 8171, "âĤ¬ÅĵGood": 8172, "Claire": 8173, "Rosie": 8174, "Ġtidied": 8175, "Ġtransf": 8176, "Ġgrandfather": 8177, "acy": 8178, "Ġwarrior": 8179, "Meow": 8180, "Ġforgiveness": 8181, "Ġsternly": 8182, "Ġgoodies": 8183, "Ġguessing": 8184, "Ġlipstick": 8185, "Ġpeep": 8186, "Ġyoungest": 8187, "<pad>": 8188, "<eos>": 8189, "<bos>": 8190, "<unk>": 8191}, "merges": ["h e", "Ġ t", "Ġ a", "Ġ s", "Ġ w", "n d", "Ġt he", "e d", "Ġa nd", "Ġt o", "Ġ b", "i n", "Ġ h", "Ġw a", "r e", "o u", "Ġ f", "i t", "Ġ l", "Ġ c", "Ġ d", "e r", "Ġ he", "Ġ m", "Ġ p", "Ġwa s", "o m", "Ċ Ċ", "Ġ T", "Ġ o", "a y", "a r", "i s", "in g", "i l", "Ġ g", "i d", "a t", "e n", "Ġ n", "Ġs a", "Ġh a", "Ġ S", "ĠT he", "a n", "i m", "o r", "o n", "Ġ it", "Ġt h", ". ĊĊ", "l l", "l e", "Ġ H", "Ġh er", "o t", "e t", "i r", "ĠS he", "e s", "ĠH e", "Ġ in", "v er", "u t", "o w", "ĠThe y", "c k", "Ġ e", "Ġ u", "l d", "Ġ y", "o o", "Ġsa id", "i g", "Ġ \"", "il y", "Ġ r", "Ġb e", "a m", "Ġs t", "Ġ I", "c e", "k e", "Ġs he", "v e", "p p", "it h", "Ġw ith", "L ily", "O n", "Ġo n", "Ġy ou", "Ġo f", "k ed", "r i", "Ġs o", "n t", "Ġh is", "Ġp l", "a d", "ver y", "Ġd ay", "Ġth at", "Ġu p", "Ġpl ay", "Ġha d", "s t", "Ġthe y", "Ġw e", "Ġ Lily", "Ġm om", "Ġf or", "Ġ B", "e l", "u n", "ou ld", "' s", "m y", "T he", "Ġl i", "c h", "en t", "Ġha pp", "Ġwa nt", "it t", "Ġs h", "ou t", "he r", "Ġd o", "l y", "Ġn ot", "om e", "s e", "Ġ very", "ou nd", "e nd", "a ll", "Ġw h", "im e", "itt le", "Ġ k", "Ġt ime", "Ġl ittle", "a l", "Ġthe re", "\" ĊĊ", "Ġn e", "h t", "Ġ M", "Ġ re", "Ġhapp y", "Ġs m", "Ġb ig", "Ġ is", "ĠI t", "Ġ ĊĊ", "Ġb ut", "a ck", "Ġa n", "Ġsa w", "ri end", "Ġf riend", "r y", "Ġa s", "r a", "On e", "id e", "a ke", "' t", "u g", "Ġl oo", "v ed", "t er", "Ġwe re", "o re", "On ce", "Ġl o", "e c", "Ġh im", "Ġto o", "Ġg o", "Ġb o", "Ġs e", "ir l", "Ġa re", "Ġ j", "ĠT im", "ar d", "Ġwant ed", "il l", "Ġg irl", "Ġup on", "Ġthe m", "Ġo ut", "Ġa t", "u r", "i nd", "Ġthe ir", "f u", "Ġs p", "w ay", "Ġ A", "Ġsm il", "Ġd id", "Ġc ould", "he n", "Ġha ve", "a in", "ar t", "Ġe x", "he d", "! \"", "r om", "Ġwe nt", "Ġa r", "i c", "Ġc an", "Ġ J", "l p", "fu l", "ĠB en", "oo d", "h ing", "Ġfriend s", "Ġn am", "ig ht", "Ġa ll", "Ġhe lp", "Ġk n", "u m", "on e", "ar k", "Ġb ack", "Ġs ay", ". \"ĊĊ", "Y ou", "Ġf un", "Ġc l", "ĠT om", "a re", "Ġn o", "Ġl e", "o p", "Ġsmil ed", "Ġs c", "Ġnam ed", "Ġa l", "ou g", "Ġlo ved", "s ide", "el t", "Ġ One", "Ġm an", "Ġas ked", "i ck", "Ġto y", "Ġli ke", "Ġf e", "Ġf elt", "Ġloo ked", "Ġs ome", "Ġar ound", "Ġse e", "Ġm e", "am e", "om et", "Ġ W", "Ġr o", "Ġb r", "u re", "ĠTim my", "Ġb ir", "g et", "i ce", "Ġbo y", "Ġw ould", "Ġst art", "on g", "Ã ¢", "Ĥ ¬", "â Ĥ¬", "s s", "Ġbir d", "Ġsome t", "Ġf a", "d d", "ing s", "Ġa g", "Ġw or", "Ġwh at", "ad e", "Ġm ake", "k ing", ", \"", "i e", "ĠB ut", "ow n", "Ġt re", "Ġr an", "get her", "Ġ You", "Ġa way", "a g", "ar ed", "Ġsay s", "Ġstart ed", "ou d", "i f", ". \"", "Ġm ade", "Ġc ar", "Ġsomet hing", "Ġto gether", "it ed", "t her", "Ġp ark", "Ġc o", "Ġsa d", "Ġo ther", "Ġne w", "? \"", "Ġex c", "Ġp ut", "Ġf rom", "Ġp r", "e ll", "Ġ L", "Ġl a", "Ġh ug", "b le", "Ġm u", "oo k", "a ch", "Ġag ain", "Ġh ome", "Ġwh en", "Ġg ood", "h at", "e p", "Ġwh o", "es t", "ri ed", "Ġf ound", "Ġf l", "Ġthe n", "Ġc h", "Ġd ec", "pp ed", "Ġwa l", "a s", "Ġg et", "q u", "Ġplay ing", "oug ht", "p l", "Ġ E", "all y", "Ġs w", "ou s", "n n", "Ġth ings", "Ġexc ited", "Ġli ked", "Ġg ot", "u ck", "r o", "id ed", "Ġdec ided", "Ġb l", "a ve", "Ġc ame", "Ġe very", "ar a", "Ġyou r", "Ġ D", "ĠM om", "a x", "Ġ v", "Ġsc ared", "u st", "Ġon e", "Ġdo g", "Ġd own", "ou se", "n y", "Ġf ind", "Ġc are", "Ġbe c", "is t", "Ġth an", "Ġfe el", "a p", "u e", "u dd", "nn a", "Ġd ad", "Ġa b", "The y", "Ġm y", "Ġloo k", "Ġ ke", "ou r", "Ġw ill", "ar n", "Ġg r", "u s", "nd er", "Ġg ra", "way s", "es s", "Ġdid n", "Ġp o", "f e", "Ġal ways", "Ġtoo k", "Ġab out", "an t", "b b", "Ġl ot", "Ġmom my", "Ġtoy s", "Ġkn e", "er s", "is e", "it e", "Ġout side", "Ġtre e", "Ġth ought", "Ġb all", "Ġ F", "Ġm ore", "ec i", "ĠS am", "en ed", "ch ed", "Ġt a", "! \"ĊĊ", "Ġo ld", "Ġh o", "Ġle arn", "re t", "Ġin t", "g ed", "Ġkn ow", "Ġla ug", "Ġt ake", "eci al", "Ġsp ecial", "Ġs or", "Ġc at", "udd en", "Ġkne w", "ĠM ax", "i ve", "i a", "Ġp e", "Ġan y", "udden ly", "Ġt r", "f ter", "Ġh ow", "? \"ĊĊ", "m a", "Ġsh ow", "in k", "Ġsor ry", "Ġt w", "B ut", "Ġmu ch", "a u", "is h", "Ġr un", "a nd", "Ġha nd", "Ġs l", "v en", "Ġh ouse", "Ġo r", "Ġo p", "Ġs k", "Ġm o", "Ġcl o", "Ġs un", "Ġint o", "Ġt ried", "Ġin side", "at e", "Ġto ld", "Ġwa ter", "Ġth is", "Ġ en", "an k", "Ġ if", "Ġpr oud", "um p", "Ġ qu", "Ġo ver", "Ġcould n", "T om", "d y", "Ġg ave", "Ġhe ard", "ĠS ara", "Ġne ver", "b y", "Ġe ach", "a ce", "Ġro om", "t y", "Ġex pl", "ĠE very", "Ġe at", "ĠW e", "ot her", "au se", "Ġp ick", "i on", "Ġpr et", "ĠA nna", "M om", "Ġplay ed", "g e", "et ter", "Ġj ust", "a k", "Ġhug ged", "Ġg re", "he re", "Ġof f", "Ġc om", "Ġwa t", "ot h", "Ġbo x", "Ġn ice", "' m", "Ġst r", "Ġbec ause", "Ġne ed", "il e", "Ġman y", "Ġf o", "u c", "Ġj o", "Ġbe ar", "Ġsm all", "i z", "Ġb u", "v ing", "Ġl ong", "in e", "g ry", "im al", "or t", "Ġan imal", "Ġs n", "oug h", "Ġt ry", "Ġu nt", "il d", "s el", "ur t", "Ġunt il", "ĠJ ack", "s ed", "Ġk ind", "Ġlearn ed", "Ġ im", "Ġlo ve", "Ġb etter", "f t", "Ġfl ow", "Ġc all", "Ġd on", "H e", "ĠJ o", "Ġe nd", "Ġa d", "u ll", "Ġbe st", "ve nt", "Y es", "ar s", "ur p", "ad y", "e m", "re am", "a ut", "ur n", "ĠM ia", "Ġc le", "ĠA nd", "v es", "âĤ¬ Å", "âĤ¬Å ĵ", "ard en", "Ġ C", "Ġg arden", "Ġfa st", "Ġcare ful", "b er", "Ġbe aut", "ll y", "T h", "Ġe ven", "p t", "Ġb ra", "i es", "Ġthan ked", "Ġf i", "ĠS o", "Ġc he", "Ġlaug hed", "Ġsk y", "Ġb y", "I t", "ĠH er", "Ġj ump", "Ġg l", "a se", "Ġt e", "Ġl oud", "sel f", "in y", "Ġwa y", "w n", "Ġbeaut i", "Ġc ome", "le w", "Ġli st", "Ġw o", "Ġbeauti ful", "Ġh ard", "Ġlot s", "Ġr a", "Ġst ill", "Ġf am", "Ġanimal s", "Ġ Ã¢", "Ġh urt", "Ġu nder", "ĠThe n", "ec t", "Ġst ay", "n ing", "Ġl et", "c t", "Ġb oth", "Ġc u", "ĠH is", "he s", "b e", "Ġsa fe", "ĠF rom", "oo l", "re e", "Ġco l", "Ġtw o", "Ġb ad", "Ġb ook", "Ġim p", "op le", "Ġre m", "an e", "Ġli ved", "k ay", "o ck", "uc y", "Ġwal ked", "T im", "a st", "urp r", "Ġbr ave", "Ġsh ould", "Ġit s", "o b", "is hed", "Ġan gry", "Ġs urpr", "Ġfam ily", "! ĊĊ", "re ss", "ig h", "W hen", "Ġpe ople", "Ġf lew", "Ġcall ed", "N o", "Ġr ed", "Ġst or", "i p", "Ġso on", "Ġf in", "h n", "L et", "l ed", "Ġke pt", "Ġfor e", "f ore", "Ġd an", "Ġsh are", "Ġf ly", "x t", "is ed", "dd ed", "Ġp ic", "âĤ¬ â", "Ġdo or", "Ġgo ing", "Ġ P", "ĠW hen", "Ġpret ty", "Ġke ep", "Ġn ow", "Ġro ck", "Ġcle an", "Ġd ra", "ar y", "Ġad vent", "um my", "Ġno ise", "Ġop ened", "Ġsh iny", "ag e", "Ġexpl ore", "Ġw ind", "Ġdo ll", "Ġc ry", "Ġc on", "Ġ ide", "Ġbe fore", "i ed", "B en", "il ly", "Ġre al", "Ġst o", "s o", "W hat", "Ġgr ound", "Ġal so", "le s", "Ġt urn", "Ħ ¢", "âĤ¬â Ħ¢", "Ġe y", "T hat", "Ġf ar", "Ġide a", "Ġf r", "o on", "Ġno dded", "Ġcol or", "Ġwa r", "o y", "Ġfeel ing", "Ġu n", "Ġpick ed", "im b", "t h", "ĠL ucy", "Ġne xt", "Ġwal king", "t hing", "t ure", "ĠD ad", "Ġcl imb", "Ġha s", "u ch", "Ġm a", "Ġth r", "Ġwh ile", "e et", "Ġb ed", "Ġadvent ure", "Ġsmil e", "k es", "ay be", "Th ank", "ic ed", "g er", "i ous", "Ġ G", "Ġbe ing", "Ġd if", "Ġw r", "Ġclo s", "Ġf ood", "j oy", "t ed", "Ġg ive", "Ġpic ture", "Ġth ink", "ĠS p", "Ġloo king", "Ġd el", "f f", "a c", "Ġtr uck", "Ġwa it", "Ġey es", "ug ht", "Ġto w", "t ing", "Ġre pl", "Ġbr o", "Ġsto pped", "Ġlist en", "Ġa fter", "Ġb re", "Ġ own", "Ġv o", "Ġwal k", "em ber", "ĠS uddenly", "Ġwo nder", "Ġgre at", "Ġhand s", "S uddenly", "Ġsh out", "Ġhe ad", "Ġen joy", "Ġimp ort", "Ġflow ers", "Ġe ver", "Ġnot iced", "Ġbl ue", "Ġfor est", "bb it", "S he", "iz ed", "Ġa pp", "ir st", "Ġne ar", "Ġqu ick", "Ġd is", "Ġd e", "a ble", "Ġimport ant", "Ġrem ember", "Ġf ish", "ll ow", "Ġs ound", "Ġsl ide", "Ġu s", "ma z", "Ġrepl ied", "Ġa maz", "Ġa c", "le ase", "Ġwor k", "Ġwat ch", "Ġr ain", "Ġshow ed", "Ġra bbit", "Ġo kay", "g an", "Ġt al", "by e", "fe re", "bb ed", "Ġas k", "Ġdif fere", "Ġme an", "Ġr ight", "Ġy e", "d ay", "Ġwat ched", "Ġbr ight", "Ġfo llow", "W e", "ĠSp ot", "S o", "Ġevery one", "Ġstr ong", "Ġs qu", "Ġst ick", "Ġu se", "Ġbe en", "Ġm or", "Ġvo ice", "Ġt ra", "er ed", "Ġquick ly", "at h", "Ġo ur", "Ġw here", "Ġy ell", "Ġ N", "ĠMom my", "A nna", "Ġdiffere nt", "ĠB ob", "Ġch ild", "Ġcu ri", "Ġbo at", "n g", "Ġs ure", "ĠS ue", "Ġbec ame", "Ġgood bye", "Ġfa ce", "Ġpl ace", "an ge", "Ġh op", "Ġh igh", "Ġa m", "L ook", "a ught", "Ġ R", "Ġclos er", "Ġst ore", "Ġwar m", "Ġdo es", "Ġc r", "Ġd ress", "S ara", "un ny", "Ġcuri ous", "Ġm ag", "il a", "J o", "Ġc ook", "Ġbe l", "Ġfor g", "Ġt ell", "Ġfa v", "nd ma", "a ss", "ou nt", "c o", "Ġth ree", "le ep", "Ġn ight", "Ġop en", "Ġc ake", "m ore", "Ġhe re", "Ġany more", "Ġbl ock", "Ġf irst", "it c", "Ġb us", "Ġp ull", "is s", "ach ed", "H er", "ir ed", "Ġbut ter", "Ġ z", "im es", "ĠT h", "or n", "Ġsw eet", "Ġp ain", "Ġk id", "Ġgra bbed", "C an", "Ġp u", "\" I", "is y", "Ġon ly", "Ġm on", "Ġle a", "Ġfe ll", "Ġb a", "Ġr u", "Ġco nt", "Ġbird s", "Ġjump ed", "Ġgl ad", "Ġb it", "Ġsa nd", "itc hen", "Ġk itchen", "Ġhelp ed", "Ġse es", "Ġfi re", "Ġp er", "Ġfl o", "Ġst op", "ĠSara h", "Ġhapp ened", "Ġs ing", "Ġgra ss", "Ġb unny", "Ġshout ed", "Ġstor y", "ĠL et", "Ġt ri", "nt s", "Ġd r", "a ir", "A fter", "ĠJ ane", "pp y", "Ġre ached", "Ġbe h", "Ġreal ized", "Ġy ummy", "Ġbr other", "\" O", "ĠD o", "Ġla dy", "Ġm um", "Ġha ving", "Ġpr in", "in s", "Ġfav or", "ĠA s", "' re", "Ġme ss", "Ġfavor ite", "Ġdra w", "Ġc re", "Ġre st", "Ġthr ough", "Ġg ame", "Ġh at", "Ġat e", "Ġle ss", "Ġunder st", "ake s", "ĠEvery one", "Ġso ft", "Ġp are", "z y", "Ġth ing", "Ġre ally", "at her", "Ġre ady", "Mom my", "Ġbe gan", "w here", "Ġpret end", "ĠC an", "Ġwor ld", "ĠJo e", "ĠT hat", "Ġlook s", "k en", "Ġhim self", "Ġmag ic", "ful ly", "Ġp ap", "Ġd one", "Ġbutter f", "Ġma king", "Ġc ut", "Ġcom ing", "Ġd uck", "at er", "Ġpo nd", "Ġkid s", "Ġwa ved", "Ġwh y", "Ġp rom", "Ġt ired", "Ġf ro", "Ġfi x", "o lly", "st er", "Ġm ouse", "Ġwor ry", "Ġp art", "Ġcar s", "Ġst e", "Ġdel ic", "Ġnam e", "Ġflow er", "ig n", "Ġf ill", "W ow", "a isy", "Ġto uch", "ed dy", "Ġfun ny", "Ġcat ch", "b o", "Ġu sed", "s h", "Ġse en", "Ġha ir", "ĠJo hn", "Ġta st", "i ent", "Ġto p", "Ġpare nts", "re l", "Ġan other", "Ġho ld", "Ġho pped", "Ġc ried", "i ver", "u ff", "one y", "m er", "Ġdo ing", "Ġc ool", "Ġblock s", "h y", "Ġp us", "Ġsurpr ise", "âĤ¬ ĊĊ", "Ġl ight", "Ġgre en", "A s", "Ġthan k", "Ġless on", "Tim my", "at ion", "Ġre ad", "Ġflo or", "Ġd in", "Ġg i", "Ġw ood", "Ġf ull", "D on", "Ġd ri", "ard s", "Ġtre es", "Ġrun ning", "Ġwind ow", "Ġwor ked", "Ġye ars", "Ġc ra", "Ġd ro", "Ġ -", "Ġd ark", "Ġbeh ind", "Ġlike s", "Ġsm ell", "Ġsp ot", "Ġw ished", "Ġpap er", "u ed", "Ġye llow", "and y", "Ġb ow", "u l", "re n", "Ġsw im", "Jo hn", "Ġhapp ily", "Ġb ag", "Ġs at", "Ġsh o", "S am", "Ġs leep", "ar ing", "Ġsurpr ised", "el y", "Ġfro g", "Ġbutterf ly", "i ke", "Ġsw ing", "Ġs et", "Ġcareful ly", "ĠI n", "Ġsl ow", "Ġremember ed", "Ġlo st", "Ġco ld", "Ġhe ld", "ell o", "H ello", "Ġho le", "Ġ ice", "Ġlaug h", "re w", "Ġneed ed", "Ġbu y", "Ġper f", "Ġ Ċ", "Ġle ft", "on s", "Ġmo ve", "re ed", "ce ss", "Ġany thing", "Ġd ream", "Ġt all", "Ġenjoy ed", "Ġwr ong", "Ġar ri", "u it", "Ġhe ar", "Ġfa ir", "Ġa ir", "Ġfollow ed", "in ally", "Ġbook s", "ro ss", "Ġe l", "Ġchild ren", "Ġh un", "Ġdelic ious", "Ġta ble", "Ġfin ished", "! Ã¢", "Ġcont in", "Ġfriend ly", "Ġd ir", "Ġh ot", "Ġsn ow", "Ġher self", "d s", "l f", "ĠA fter", "Ġh ill", "en s", "Ġunderst and", "Ġp lease", "Ġclo se", "in ed", "Ġh id", "Ġarri ved", "Ġc ast", "Ġel se", "Ġar m", "Ġba by", "Ġwonder ful", "Ġm ight", "Ġg ent", "Ġt ight", "Ġforg ot", "s p", "ie ld", "Ġb ug", "ĠS ally", "Ġcolor s", "Ġr el", "Ġbu ild", "Ġbro ken", "ĠD aisy", "Ġa ble", ". Ã¢", "Ġg one", "a v", "n er", "ĠN ow", "ĠBen ny", "ĠL ila", "Ġy es", "at ter", "Ġs ong", "The n", "i ch", "Ġwa ll", "Ġsqu ir", "Ġfill ed", "Ġag reed", "Ġsome one", "J ack", "Ġcontin ued", "ro om", "Ġcre at", "as ure", "' ll", "Ġc ount", "Ġwant s", "\" Look", "Ġsquir rel", "ĠE m", "Ġp ink", "Ġlea ves", "as k", "Ġen ough", "e y", "ĠThe re", "ĠTom my", "Ġli on", "F rom", "am a", "e e", "Ġmor ning", "Ġv is", "Ġmom ent", "Ġfin ally", "Ġget ting", "Ġstay ed", "Ġcook ies", "Ġbre ak", "a pp", "Ġpo in", "an ce", "Ġbe ach", "Ġ K", "Ġfe w", "ĠM aybe", "Ġsc ary", "Ġf ight", "Ġsomet imes", "r ow", "as h", "ri es", "c ed", "r ed", "Ġturn ed", "Ġhun gry", "Ġf all", "Ġdin ner", "g on", "Ġmo ther", "Ġgra ndma", "Ġj u", "Ġw et", "ĠW hat", "Ġamaz ing", "a pped", "Ġtry ing", "H is", "Ġc ream", "Ġdad dy", "Ġperf ect", "Ġp i", "Ġmake s", "Ġcast le", "Ġother s", "A t", "Ġclimb ed", "ke y", "ou p", "ĠTh is", "Th is", "Ġpicture s", "ic y", "Ġcom p", "am p", "Ġtal k", "Ġm et", "Ġmu s", "Ġwh ite", "o om", "Ġlist ened", "Ġsmil es", "m an", "Ġf ur", "Ġball oon", "Ġcl ot", "or ing", "ĠG ra", "Ġal one", "Ġclot hes", "Ġpo l", "ĠB illy", "l c", "Ġta il", "Ġjo y", "at ed", "r ot", "Ġpu ppy", "Ġsp l", "en ce", "Ġm ar", "Ġwas n", "Ġbr ought", "Ġde ep", "Ġevery thing", "Ġp et", "Ġse ar", "Ġstr ange", "is ter", "ct or", "Ġsp ark", "d er", "Ġs it", "Ġwood s", "Ġgr ow", "\" .", "Ġpull ed", "l ing", "Ġsa il", "ĠT o", "ot t", "Ġw on", "Ġpl an", "Ġr ide", "et er", "Ġask s", "Ġfo x", "Ġp ie", "Ġdan ger", "Ġtre at", "uff y", "Ġro ll", "Ġvis it", "ĠA my", "o s", "Ġle ave", "m ed", "ĠJ en", "Ġp at", "uck y", "Ġmus ic", "Ġamaz ed", "Ġwa ited", "\" S", "Ġt eddy", "Ġh ide", "m e", "an g", "e ver", "Ġtow ards", "Ġ O", "M ax", "ow er", "Ġf ield", "Ġla nd", "Ġp re", "\" Yes", "Ġfly ing", "z z", "Ġp en", "Ġs illy", "Ġsh ared", "Ġrun s", "ain ed", "Ġown er", "Ġcl oud", "ap e", "Ġli ving", "ug g", "Ġqu i", "am es", "Ġjo b", "Ġprom ised", "Ġbel ie", "ig g", "Ġmor al", "Ġg u", "Ġs ide", "g s", "or m", "Ġl ake", "o l", "Ġp a", "Ġthink s", "M aybe", "ck et", "op e", "Ġpain t", "Ġs ec", "th y", "Ġs ister", "u ally", "Ġpart y", "Ġqui et", "is es", "Ġmu st", "c le", "Ġr ace", "ĠJ im", "av y", "Ġm oney", "Ġwe ar", "s w", "Ġwor ried", "as ed", "u p", "Ġan sw", "un ch", "Ġslow ly", "Ġp ot", "ec es", "Ġcolor ful", "Ġfast er", "Ġgr ate", "Ġo w", "Ġdan ce", "Ġpi eces", "Ġbr an", "Ġb ott", "Ġwe lc", "Ġbro ke", "Ġcu p", "i x", "Ġgrate ful", "Ġg if", "Ġs uch", "Ġbig ger", "z e", "Ġtr ain", "p h", "f ort", "Ġsn ack", "Ġch o", "Ġre ach", "Ġbl ank", "ĠA ll", "Ġmon ster", "Ġpr o", "\" No", "Ġpl ant", "Ġjo in", "Ġr iver", "Ġbl ack", "le ss", "\" Let", "Ġw in", "Ġcan dy", "i re", "\" Wow", "Ġblank et", "Ġsc ream", "Ġtre asure", "Ġmagic al", "e ar", "Ġ ve", "Ġprin cess", "Ġe le", "Ġsm art", "Ġb ike", "Ġdanger ous", "Ġs ign", "Ġdra gon", "Ġac ross", "Ġmon key", "Ġb ar", "Ġevery where", "Ġmo st", "ĠDad dy", "Ġhelp ing", "Ġn ap", "Ġfar mer", "out h", "Ġe m", "Ġm outh", "W hy", "s et", "Ġdis app", "Ġwor ds", "Ġj e", "i pped", "Ġst re", "or ed", "H i", "Ġtow er", "m ing", "e ared", "Ġth rew", "Ġste pped", "Ġhe avy", "Ġdoll s", "Ġp ass", "Ġb ite", "d e", "Ġbow l", "Ġdir ty", "Ġtw ins", "Ġs ame", "Ġcry ing", "Ġbe e", "Ġsp r", "e re", "Ġdo ctor", "id ent", "ĠM olly", "Ġac c", "Ġbelie ve", "Ġwould n", "Ġb ath", "Ġhe al", "ĠF l", "ch ool", "Ġh ig", "b ble", "Ġclo sed", "Ġcar rot", "Ġhe art", "M ia", "Ġst uck", "ck ed", "Ġco ur", "Ġfr uit", "Ġb uck", "Ġm in", "Ġat t", "Ġte ac", "Ġs chool", "ĠM r", "Ġbr own", "Ġhop ed", "ĠJ ill", "ask et", "it ing", "Ġs uddenly", "Ġb asket", "Ġfeel s", "Ġm ix", "? Ã¢", "Ġch air", "Ġeat ing", "Ġt own", "Ġcour se", "Ġcr ay", "Ġcl apped", "Ġco ll", "Ġgent le", "Ġfair y", "pp ing", "Ġbut t", "Ġp ack", "vent ually", "Ġst and", "i er", "Ġdro ve", "or s", "Ġpus hed", "b r", "is sed", "Ġwelc ome", "t s", "Ġsw ings", "Ġwith out", "Ġhigh er", "Ġto day", "Ġne igh", "Ġpo cket", "or row", "Ġh it", "\" What", "Ġteac her", "Ġneigh b", "Ġp ers", "or d", "Ġsm o", "Ġgame s", "our n", "Ġpie ce", "ra ct", "Ġche ered", "Ġw ings", "Ġfor get", "Ġb en", "Ġexpl ained", "Ġjo urn", "Ġy ard", "Ġlong er", "Ġf ree", "F inally", "i ble", "Ġc orn", "Ġacc ident", "h o", "e ad", "Ġd ry", "Ġal ong", "um b", "ĠM ary", "m ent", "c y", "Ġnoise s", "itt ing", "Ġne ck", "Ġsa ng", "Ġin st", "Ġl ate", "Ġhapp en", "Ġthr ow", "Ġhug s", "L ila", "Ġyou ng", "Ġturn s", "Ġstor ies", "ve l", "Ġsho es", "ph ant", "Ġl on", "\" Can", "Ġm iss", "Ġadventure s", "Ġsing ing", "Ġtr ou", "Ġwe ll", "Ġse a", "Ġl unch", "Ġapp le", "Ġup set", "Ġlon ely", "Ġke y", ". Ċ", "ch es", "Ġbel ong", "bb y", "ou n", "Ġd ist", "Ġsec ret", "Ġstr eet", "Ġpl ac", "Ġele phant", "Ġto m", "Ġw ish", "Ġf ence", "Ġm ine", "ount ain", "Ġm at", "e k", "Ġsh ap", "Ġsh ook", "Ġexpl oring", "Ġmo ved", "Ġp urp", "Ġye ar", "aught y", "Ġnear by", "Ġn aughty", "Ġst ar", "Ġs oup", "Ġsh op", "Ġw ise", "ĠGra ndma", "Ġst ars", "Ġow l", "Ġbr ing", "fu sed", "Ġj ar", "b ow", "D o", "ock ed", "Ġin v", "Ġex p", "Ġw he", "y ard", "Ġc aught", "Ġs u", "w ard", "Ġback yard", "Ġsee med", "a il", "Ġ es", "Ġrel ie", "Ġdro pped", "Ġp h", "Ġrock s", "ĠEm ma", "aught er", "ll o", "us h", "Ġdr ink", "Ġbu cket", "Ġd es", "Ġc a", "ad ow", "c es", "Ġpurp le", "Ġsw am", "Ġfar m", "Ġre sp", "Ġta king", "Ġma il", "Ġor ange", "Ġth ough", "ion s", "A nd", "Ġshap es", "Ġp ast", "co l", "Ġc ow", "Ġst u", "Ġ Thank", "Ġwo ke", "Ġben ch", "Ġsound s", "Ġa f", "un g", "it y", "s y", "Ġwonder ed", "Ġbus y", "Ġf it", "Ġt iny", "Ġo b", "Ġno se", "Ġsit ting", "Ġne st", "Ġrain bow", "es e", "Ġd aughter", "Ġtake s", "Ġm ark", "Ġm ad", "O kay", "f ish", "Ġc ou", "Ġk ite", "t o", "re ad", "Ġhold ing", "w eet", "Ġnot hing", "Ġcom es", "Ġju ice", "Ġarm s", "th day", "Ġp ig", "Ġco at", "o g", "ĠFl uffy", "in ing", "O h", "Ġc ir", "ĠIn side", "Ġbran ch", "ra id", "Ġrelie ved", "pp er", "Ġaf raid", "c ing", "o se", "id ge", "Ġdr iver", "Ġm il", "Ġfore ver", "ver ed", "Ġsp oon", "Ġcut e", "Ġcar ry", "Ġgi ft", "Ġs ick", "Ġbo un", "Ġli ft", "st ing", "Ġpe ace", "Ġprom ise", "\" It", "our s", "ĠF inally", "Ġhug e", "Ġa ct", "Ġto u", "Ġtouch ed", "Ġpat ient", "u nt", "Ġk ing", "Ġr ound", "c er", "s c", "Ġh ello", "ĠC ome", "Ġbir thday", "Ġf ing", "Ġl etter", "Ġgra b", "Ġint ere", "Ġexc iting", "le t", "Ġsun ny", "Ġche ese", "et h", "Ġon to", "Ġlaug hing", "Ġday s", "bo ard", "\" Thank", "\" Hello", "Ġjourn ey", "Ġg igg", "Ġb and", "Ġcreat ure", "Ġdis co", "ĠM ama", "itt ens", "Ġbre ad", "He y", "ar p", "Ġr et", "Ġim ag", "p ed", "sh ine", "Ġli fe", "Ġk ick", "Ġbus h", "g ged", "Ġhop e", "Ġp ower", "Ġcra w", "Ġshe ll", "Ġco zy", "Ġswim ming", "Tom my", "Ġin c", "Ġbott le", "Ġm ist", "Ġsh arp", "Ġw ra", "g g", "Ġs uc", "Ġcom fort", "Ġinst ead", "Ġwh ist", "Ġmil k", "Ġwatch ing", "Ġret urn", "Ġe ar", "n ess", "Ġsp in", "al m", "Ġaccident ally", "Ġe as", "Ġsun shine", "t en", "ĠSo on", "Ġc ave", "p a", "ĠSam my", "Ġsp o", "Ġput s", "Ġl ucky", "Ġtal ked", "Ġh oney", "Ġp udd", "Ġpoin ted", "Ġgive s", "Ġcoll ect", "Ġg ather", "it ch", "Ġro ad", "Ġe nt", "L ater", "Ġsmil ing", "Ġb ought", "Ġany one", "Ġh or", "Ġsear ched", "Ġla ter", "Ġc e", "Ġf an", "Ġsand w", "b all", "r ound", "itt en", "Ġapp les", "el s", "ble m", "ir t", "Ġpro blem", "Ġme et", "iz e", "B ob", "Ġm ach", "L ucy", "Ġw om", "Ġlove s", "Ġintere sting", "G ood", "âĤ¬Åĵ I", "Ġwo man", "\"O K", "Ġpl ane", "ĠT weet", "Ġk iss", "Ġpr es", "Ġheal thy", "e b", "Ġp ile", "Ġtast y", "Ġduck s", "u b", "Ġv ill", "ĠJim my", "o ve", "Ġw ide", "on t", "am ed", "a ur", "Ġad m", "Ġe ag", "Ġsp id", "Ġcle ver", "Ġcray ons", "Ġpr ot", "Ġm atter", "Ġtrou ble", "er ly", "nd pa", "Ġz oom", "Ġcloud s", "ow ed", "ĠW ith", "Ġstor m", "Ġpers on", "Ġp ath", "ck s", "Ġp ill", "Ġfe ather", "Ġr ope", "Ġp op", "Ġsh ining", "Ġprot ect", "Ġsmell ed", "Ġfro nt", "Ġh on", "Ġbutt on", "Ġp ract", "Ġspot ted", "\" W", "Ġscream ed", "Ġz oo", "Ġmin ut", "ĠE ll", "Ġpres ent", "C ome", "Ġa p", "Ġmu d", "Ġv al", "Ġresp ect", "Ġsa f", "Ġdan ced", "Ġche er", "Ġor gan", "J im", "Ġp ar", "Ġqu est", "o nd", "Ġapp eared", "Ġwh ich", "Ġpu zz", "Ġse at", "M olly", "Ġte ach", "Ġmy ster", "Ġsnow man", "J ust", "\" That", "is a", "Ġsn ake", "Ġth in", "er t", "a le", "Ġw ild", "Ġas leep", "Ġlove ly", "Ġs ur", "Ġansw er", "ep end", "Ġwe aring", "Ġgent ly", "Ġneighb or", "oo se", "Ġb ark", "M um", "Ġhor se", "Ġgi ant", "Ġplace s", "Ġgo es", "Ġwho le", "omet imes", "Ġsear ch", "\" .ĊĊ", "Ġspl as", "E very", "Ġcorn er", "Ġimp ress", "ul ar", "Ġdir t", "Ġm ed", "Ġsh r", "e en", "Ġtr ies", "Ġtr ip", "Ġcon fused", "ĠEm ily", "Ġli ve", "Ġm ind", "Ġd i", "at o", "l a", "Ġroll ed", "Ġc ard", "Ġsl id", "Ġtast ed", "n ic", "ce an", "Ġas h", "Ġo cean", "Ġsu pp", "Ġforg ive", "Ġpic nic", "Ġru de", "Ġmach ine", "e x", "Ġsp ent", "ĠG o", "Ġdr ive", "Ġte eth", "Ġs er", "I n", "ss ed", "itt y", "Ġph one", "S ure", "ĠH ow", "Ġo ven", "Ġp an", "Ġp our", "Ġla st", "Ġc alm", "Ġpretend ed", "Ġdel ight", "Ġcook ie", "Ġfur ry", "Ġspid er", "iz z", "Ġfe et", "Ġface s", "un k", "Ġl ay", "Ġwor m", "Ġr ing", "ĠC h", "Ġre c", "um ber", "Ġhelp ful", "Ġl ad", "ĠM ittens", "Ġe ventually", "Ġw ip", "Ġch ick", "Ġwa ve", "Ġm ountain", "Ġsa l", "Ġb an", "Ġem b", "Ġtal king", "on es", "Ġro b", "Ġfo ld", "Ġsh y", "Ġc art", "Ġtom orrow", "Ġs el", "Ġcho col", "Ġt id", "ĠJen ny", "Ġspr ead", "Ġvill age", "ar ge", "if e", "Ġrem ind", "Ġ ign", "Ġbu bble", "Ġt un", "Ġco in", "Ġfo ot", "Ġco uch", "Ġwr ite", "Ġlad der", "Ġbuild ing", "Ġpu sh", "Ġfight ing", "Ġsmo oth", "Ġtreat s", "h ile", "Ġw ore", "Ġch ased", "Ġtoo l", "ig hed", "Ġb lew", "Ġst ret", "le x", "M y", "ar ra", "Ġbug s", "Ġemb arra", "Ġhid ing", "Ġp ool", "Ġc ross", "Ġwait ing", "op h", "Ġkne e", "\" Maybe", "Ġrob ot", "Ġneck l", "Ġst ep", "Ġpudd le", "m o", "Ġfin ish", "Ġshe lf", "Ġbe ll", "Ġc oo", "n ot", "al s", "Ġsong s", "Ġst ir", "at or", "Ġwhen ever", "S oon", "Ġsel fish", "Ġa nt", "Ġm aybe", "t op", "Ġcan not", "Ġstr ing", "O f", "Ġst ra", "Ġchocol ate", "ul t", "Ġso l", "Ġtast e", "Ġsp e", "Ġre p", "\" Mom", "\"O h", "Ġh um", "Ġp le", "Ġl arge", "Ġpa w", "Ġn et", "M ama", "ĠJ ake", "bo x", "Ġsa ck", "Ġlea f", "Ġsc ar", "Ġfix ed", "le br", "Ġbar ked", "Ġtid y", "ump y", "Ġban an", "Ġwas h", "ĠEvery where", "ĠS ometimes", "Ġspr ay", "Ġst one", "o ld", "ĠJ ust", "h nn", "Ġce lebr", "Ġg en", "Ġcl oth", "P lease", "Ġcra b", "ĠL e", "D ad", "Ġpeace ful", "Ġcol our", "ung le", "ĠP lease", "hn ny", "Ġhe l", "ir d", "o in", "l ice", "Ġm issed", "Ġde ter", "Ġj ungle", "Ġ '", "ig er", "ar m", "\" We", "N ow", "Ġland ed", "Ġdeter m", "Ġfor ward", "Ġembarra ssed", "Ġneckl ace", "Sara h", "Ġhon est", "Ġjump ing", "air s", "el ly", "Ġb at", "ĠThe ir", "Ġdec or", "d ge", "Ġtr ust", "Ġhe ars", "Ġmo on", "or ry", "Ġstick s", "ĠT V", "Ġsh irt", "Ġcreat ive", "Ġsh aring", "a king", "Ġte a", "mo st", "Ġkn ocked", "Ġcarrot s", "Ġdisapp oin", "Ġsuc cess", "Ġme adow", "y ing", "get able", "\"S ure", "Ġwh is", "Ġst ood", "Ġgen er", "Ġve getable", "Ġb al", "ĠD on", "Ġme ant", "Ġle gs", "Ġtight ly", "Ġbre ath", "Ġpl ate", "Ġal most", "Ġash amed", "n ed", "Ġem p", "Ġso ur", "Ġgr ay", "d le", "Ġgre w", "Ġtell s", "Ġemp ty", "ĠS ome", "Ġpi llow", "g round", "on y", "Ġg as", "Ġspl ash", "Ġwhist le", "Ġ On", "i an", "Ġunderst ood", "B e", "\" You", "Ġshe ep", "Ġb er", "Ġcar ried", "d en", "ĠL isa", "Ġyell ed", "ĠW hy", "T o", "Ġle m", "ĠT eddy", "ust r", "ar l", "ĠA nn", "Ġno ds", "er p", "v ous", "Ġsa ve", "Ġpol ice", "Ġdisappoin ted", "Ġsnack s", "Ġh ours", "Ġn ut", "it al", "Ġwhis p", "Ġje w", "Ġthe se", "h in", "or k", "Ġho sp", "et s", "Ġspark ly", "Ġgo ld", "Ġhosp ital", "Ġk itten", "ĠE ven", "ĠM um", "Ġsh ip", "Ġp ay", "in a", "ob by", "ĠTo gether", "Ġbo red", "ur se", "Ġl ine", "Ġgener ous", "Ġfr ustr", "Ġt est", "Ġhid den", "Ġta ught", "Ġstand ing", "Ġr ad", "Ġscar f", "if f", "Ġche w", "Ġreturn ed", "Ġminut es", "Ġpi zz", "Ġknow ing", "Ġgr oup", "Ġh ur", "Ġplant s", "Ġeas y", "Ġbl ow", "Ġbed room", "Ġpol ite", "Ġmyster ious", "Ġwa ves", "Ġgl ass", "Ġs ighed", "Ġsh ore", "Ġp ri", "Ġse ed", "Ġwo lf", "us ie", "Ġsee k", "Ġdeterm ined", "ĠP eter", "k in", "Ġpuzz le", "Ġpower ful", "Ġthank ful", "J ane", "f l", "Ġcl ass", "Ġn er", "ĠB e", "Ġp ir", "Ġsandw ich", "Ġf ig", "Ġsleep y", "Ġprin ce", "Ġpass ed", "Ġd rew", "ĠS t", "' d", "Ġfin ger", "Ġje lly", "Ġpizz a", "Ġner vous", "Ġfrustr ated", "Ġsp icy", "Ġg un", "Ġspo il", "Ġmat ch", "Ġfan cy", "Ġmess y", "os aur", "w ork", "Ġg ate", "The re", "Ġbr idge", "Ġlo ck", "Ġk issed", "Ġt ick", "au l", "Ġclos et", "Ġfe ar", "Ġre g", "a f", "Ġfe ed", "Ġm ot", "Ġso ld", "Ġw is", "Ġgather ed", "oo p", "Ġa v", "Ġexc ite", "Ġpo or", "Ġcir c", "ot e", "Ġha ng", "\" Hey", "Ġcat erp", "Ġcaterp ill", "Ġes c", "Ġfl ag", "Ġp in", "Ġgr umpy", "Ġv an", "id dle", "ell a", "Ġdin osaur", "Ġyour self", "an o", "iss ors", "u ce", "Ġansw ered", "Ġcr ies", "A re", "Ġof ten", "itt er", "Ġ Z", "Ġtw irl", "sel ves", "Ġch est", "s ist", "Ġsc issors", "Ġho pping", "Ġte ars", "p ack", "g ly", "m b", "Ġm ummy", "ĠR ex", "Ġu gly", "er a", "Ġb urn", "Ġcan d", "ens ive", "Ġde er", "Ġdr op", "ill ed", "Ġf il", "Ġexcite ment", "iz zy", "Ġcaterpill ar", "Ġl it", "Ġwor king", "Ġm iddle", "Ġexp ensive", "Ġsc r", "Ġsa ved", "Ġtake n", "ĠB r", "Ġo k", "Ġtr ue", "Ġwa gged", "Ġon es", "Ġplease d", "Ġcr own", "\" H", "Ġsp end", "Ġb oring", "Ġpick s", "Ġle g", "qu e", "oo f", "ug ar", "Ġv ase", "Ġt ent", "Ġas king", "bo dy", "Jim my", "O K", "u al", "ĠB l", "Ġbr ush", "Ġt ie", "at es", "Ġvegetable s", "eci ally", "Ġgigg led", "Ġbo ss", "et e", "The ir", "Ġmist ake", "Ġc age", "s er", "Ġget s", "l ight", "Ġrock et", "Ġc ap", "Ġm ir", "ĠLe o", "Ġcomfort able", "Ġs ugar", "Ġe ld", "Ġst uff", "Ġpa cked", "ĠJohn ny", "Ġdan cing", "p ecially", "Ġes pecially", "Ġwa nder", "Ġcl own", "Ġmed ic", "Ġn umber", "Ġpr ess", "Ġs ight", "Ġkn ight", "us hed", "g gs", "ot s", "Ġfruit s", "in ess", "Ġe ggs", "Ġl ying", "Ġdr um", "Ġf ake", "Ġd est", "r or", "Ġmedic ine", "Ġwalk s", "Ġdist ance", "ag ed", "Ġgl ue", "Ġsplas hed", "Ġsweet ie", "Ġb ake", "Ġfl ut", "Ġb one", "Ġdraw ing", "Ġmo ving", "\" Hi", "Ġdisapp eared", "h a", "Ġwe ek", "ĠO K", "Ġle ad", "Ġsmell y", "Ġcl ap", "Ġbec ome", "Ġlem on", "Ġch ange", "Ġpr ay", "Ġfeather s", "Ġmom s", "Ġlo se", "Ġmo v", "Ġli cked", "Ġcall ing", "ĠI f", "Ġtw ist", "Ġdog s", "Ġbath room", "Ġplay ground", "or y", "y al", "Ġf is", "Ġla zy", "M e", "en ny", "Ġro ar", "Ġeld erly", "Ġwe ak", "Ġinc red", "Ġc ri", "Ġg ar", "S ally", "Ġbo dy", "Ġh orn", "Ġex am", "Ġcr ack", "G ra", ", Ã¢", "Jo e", "Ġquest ions", "Ġa dd", "Ġwr ote", "B illy", "Ġy og", "Ġyour s", "Ġno isy", "Ġfa ther", "Ġmir ror", "ugg est", "Ġm ic", "Ġno d", "Ġs uggest", "el p", "at ing", "ee z", "Ġfl uffy", "Ġsk ipped", "Ġ ed", "Ġwhe el", "Ġeag er", "Ġlo yal", "Ġl amp", "Ġd ish", "Ġex t", "Ġcle ar", "Ġfam ous", "l and", "Ġd ig", "Ġst ones", "Ġru ined", "in ation", "ĠA t", "Ġr ich", "Ġr are", "Ġor d", "ĠE nd", "Ġt ape", "Ġse ll", "Ġdr ank", "Ġcont ent", "Ġfig ure", "Ġqu een", "Ġmar ch", "Ġincred ible", "Ġgl ow", "Ġm ap", "Ġshow s", "h ip", "Ġr id", "t i", "Ġche ck", "Ġju icy", "Ġso ap", "Ġco vered", "Ġin d", "Ġball s", "Ġsail ed", "im p", "Ġrel ax", "Ġa w", "A my", "Ġsho ot", "ill i", "Ġte am", "ate ly", "Ġme asure", "Ġdec ide", "Ġreal ised", "umb led", "Ġdisco vered", "Ġco ins", "Ġneed s", "Ġb orrow", "Ġsw an", "\"O kay", "Ġstra w", "f ic", "Ġadvent ur", "ĠBl ue", "J ill", "ce pt", "Ġ No", "Ġclean ed", "Ġbran ches", "Ġtow el", "Ġboy s", "Ġext ra", "Ġha m", "ĠL ittle", "as ing", "Ġbo ard", "Ġchick en", "Ġb arn", "Ġmo d", "Ġt iger", "Ġmot or", "Ġt ag", "Ġadventur ous", "Ġjo ke", "Ġdif fic", "Ġoff ered", "Ġf ine", "ke ep", "Ġbal ance", "Ġlift ed", "i que", "Ġbubble s", "Ġcolour ful", "Ġfr own", "Ġt urt", "Ġey e", "Ġth ick", "M ummy", "Ġdiffic ult", "Ġbott om", "Ġtr ack", "Ġto ug", "al ous", "Ġorgan ized", "S p", "Ġco ver", "Ġhappen ing", "Ġun ique", "ra g", "Ġje alous", "Ġdo lp", "Ġho se", "p ort", "Ġkn ife", "Ġwe ird", "Ġis land", "ĠS usie", "c il", "Ġgar age", "Ġfr ight", "Ġman aged", "ll a", "im ed", "Ġhurt s", "Ġpen cil", "Ġwor d", "j ect", "Ġcraw led", "Ġco st", "Ġlearn ing", "Ġar g", "Ġcir cle", "ĠM ark", "Ġsay ing", "S ue", "Ġkind ness", "ur ed", "Ġber ries", "Ġon ce", "ol og", "Ġmight y", "Ġballoon s", "Ġt ough", "Ġpoin ting", "Ġch ase", "Ġba ld", "Ġfav our", "re ady", "Ġwa nd", "Ġt er", "l ies", "keep er", "Ġsh ake", "u nd", "i v", "ĠBob by", "Ġjew el", "Ġloud er", "ĠBr own", "i pper", "Ġa dded", "ag es", "Ġb atter", "Ġs il", "Ġhun t", "Ġun us", "Ġg uit", "Ġhard er", "Ġgu ess", "Ġap olog", "Ġe dge", "he ad", "Ġal ready", "Ġf our", "Ġan g", "Ġsp un", "Ġfavour ite", "Ġf ool", "Ġn orm", "Ġwh ale", "Ġunus ual", "Ġli br", "Ġval u", "i pp", "ra ge", "al k", "Ġenjoy ing", "ĠK itty", "Ġd izzy", "a w", "Ġhat s", "Ġp ump", "Ġbelong ed", "Ġgra ce", "Ġwr apped", "Ġcheer ful", "Ġsmo ke", "- up", "ugg led", "Ġimpress ed", "Ġstraw ber", "Ġtruck s", "Ġrec ord", "Ġgi ving", "Ġsw ord", "Ġmark et", "Ġgr own", "Ġre f", "Ġlaugh s", "Ġtr unk", "Ġnorm al", "an ged", "Ġgra nd", "Ġher o", "Ġe ars", "Ġguit ar", "Ġloud ly", "ol a", "illi ant", "Ġh arm", "Ġturt le", "He re", "Ġbanan a", "Ġproud ly", "Ġbox es", "Ġsc are", "at ure", "il t", "Ġbr illiant", "er y", "Ġcho ose", "Ġbrother s", "Ġcirc les", "Ġter ri", "Ġboss y", "Ġdream ed", "Ġagain st", "Ġesc ape", "y m", "Ġgo at", "Ġinv ited", "Ġsk in", "Ġca b", "Ġhelp s", "g y", "c ient", "Ġcomp et", "Ġp il", "ip e", "Ġpain ting", "Ġmean s", "Ġm elt", "Ġfright ened", "Ġac cept", "f ast", "Ġpe e", "Ġfl ash", "Ġsafe ly", "Ġd epend", "Ġbutt ons", "Ġsl ipped", "Ġdes ign", "Ġstu bb", "Ġbird ie", "Ġj ack", "ĠD an", "Ġwr ap", "Ġvalu able", "Ġcab in", "Ġcray on", "ĠEll ie", "Ġwa ke", "Ġst ream", "ĠF red", "Ġwall s", "Ġhapp iness", "ous es", "Ġbreak fast", "Ġlo g", "er ry", "Ġan cient", "ed ient", "Ġstu dy", "Ġsuccess ful", "Ġcl ay", "em o", "or ge", "Ġknow s", "Ġfool ish", "Ġto ast", "Ġfall s", "y e", "Ġfr idge", "Ġle an", "Ġstubb orn", "Ġun l", "Ġnice ly", "at ch", "Ġsh ape", "app ing", "om ed", "Ġfi er", "Ġc udd", "ĠP ete", "Ġr ough", "Ġdream s", "Ġmov ie", "Ġsp ace", "Ġhouse s", "Ġc ity", "Ġno sy", "Ġbl oom", "Ġdelic ate", "Ġob edient", "Ġfier ce", "ĠM y", "Ġoff ice", "Ġtom ato", "Ġf at", "Ġgra ndpa", "ad o", "la imed", "a z", "Ġ icy", "Ġcompet it", "Ġsuggest ed", "ĠTo day", "Ġsh ark", "Ġde ad", "Ġnot ice", "Ġwa gon", "p es", "Ġexc laimed", "Ġme m", "Ġkind s", "Ġmix ed", "Ġwip ed", "Ġc her", "Ġuse ful", "e xt", "Ġpour ed", "Ġshell s", "ut h", "âĤ¬Åĵ Let", "Ġst ri", "ĠBob o", "Ġlight s", "Ġtool s", "Ġlo cked", "Ġsound ed", "Ġth u", "Ġsto ve", "Ġexcited ly", "Ġexplore d", "Ġa unt", "w ards", "Ġe gg", "ĠR ose", "Ġfr ag", "e orge", "Ġro se", "Ġs on", "o ppy", "Ġsh adow", "Ġtime s", "ar ry", "Ġc ro", "Ġen c", "ĠTweet y", "Ġbag s", "Ġf ountain", "ent ion", "Ġthem selves", "o ot", "Ġst umbled", "Ġbus hes", "Ġwe al", "ach e", "d om", "Ġl ow", "Ġshow ing", "Ġspoil ed", "Sp ot", "Ġfing ers", "Ġperf orm", "Ġla b", "Ġab ove", "v ice", "Ġthought ful", "Ġre sc", "Ġind epend", "k n", "Ġsmall er", "Ġw itch", "Ġd ough", "E m", "Ġfrag ile", "n a", "Ġdepend able", "r ay", "Ġra ced", "Ġjo g", "art h", "Ġplay ful", "in al", "Ġsee m", "Ġhel m", "Ġspin ning", "Ġen g", "Ġte le", "c orn", "Ġclo ck", "Ġbright ly", "in es", "Ġprin t", "Ġro de", "Ġstret ch", "Ġpar rot", "orm ous", "W here", "Ġdelight ed", "Ġbu ilt", "Ġadm ired", "Ġen ormous", "Ġla w", "Ġkick ed", "Ġ U", "Ġr oof", "Ġcount ed", "Ġj am", "Ġsw e", "Ġr at", "Ġpract ice", "re en", "Ġor ig", "Ġ ways", "Ġchange d", "Ġsh one", "Ġsun fl", "Ġc op", "ĠEll a", "Ġremind ed", "Ġtw ig", "Ġac orn", "ith er", "Ġc am", "i ence", "Ġsn iff", "Ġz ip", "ee ze", "Ġham mer", "Ġindepend ent", "ĠYou r", "Ġus ing", "Ġbit ter", "Ġhand ed", "Ġwhisp ered", "Ġho op", "mb re", "kn own", "Ġcho se", "Ġch ir", "an ut", "Ġlo ll", "Ġjo lly", "Ġu mbre", "ĠMr s", "Ġc one", "Ġtun n", "Ġsol ve", "Ġstrong er", "Ġbe es", "Ġser ious", "ip op", "ĠM ar", "Ġorig inal", "Ġt ummy", "Ġste al", "Ġbe ak", "Ġbr ace", "Ġterri ble", "âĤ¬Åĵ Yes", "Ġm is", "Ġpop corn", "Ġf re", "Ġloll ipop", "Ġpain ted", "Ġboat s", "Ġall owed", "Ġhair y", "ic t", "Ġmo der", "ia ble", "Ġsa uce", "Ġclean ing", "Ġun known", "Ġlea ving", "Ġd ust", "ĠB ella", "Ġgas ped", "Ġfind ing", "Ġjo ined", "Ġgu ard", "Ġsal ad", "Ġpot ato", "he t", "Ġbe an", "Ġpump kin", "up id", "ie w", "ĠB u", "Ġpick ing", "Ġcl um", "in ary", "Ġdo ve", "W ell", "an ger", "Ġb ump", "ĠN emo", "Ġha lf", "Ġs ink", "am ond", "Ġcost um", "ur ing", "Ġy et", "ro be", "Ġmet al", "Ġt ank", "Ġboun ce", "Ġrel iable", "Ġpo st", "Ġto r", "Ġv iew", "Ġdoes n", "Ġth ose", "Ġfor th", "ag het", "aghet ti", "Ġdi amond", "Ġdolp hin", "Ġad vice", "c om", "ĠS n", "\" But", "Ġh ay", "Ġbar ber", "Ġmoder n", "Ġst amp", "Ġru bb", "Ġthink ing", "Ġg em", "Ġ ing", "Ġhold s", "g u", "eb ra", "\" Tom", "ĠA lice", "\" Don", "Ġpir ate", "H ow", "ug ged", "Ġmar ble", "Ġcre ate", "Ġreg ular", "red ient", "Ġing redient", "ĠGra ndpa", "Ġclum sy", "Ġsleep ing", "Ġsearch ing", "Ġst airs", "Ġweal thy", "Ġy arn", "Ġr ushed", "Ġst upid", "Ġpr ep", "il ty", "Ġtell ing", "ĠWhen ever", "Ġsp aghetti", "Ġgu ilty", "Ġche ap", "Ġpe anut", "Ġgo ose", "Ġch ar", "âĤ¬Åĵ What", "oph ie", "Ġru b", "Ġmag n", "ation s", "Ġfl ex", "ĠF r", "Ġcomp ass", "Ġopen s", "Ġm ask", "Ġpat ch", "Ġst at", "Ġar row", "Ġz ebra", "Ġeng ine", "i o", "Ġthu nder", "Ġkn ock", "Ġsqu are", "ill a", "eez ed", "irst y", "Ġang el", "\" Ben", "Ġc ur", "Ġgrace ful", "Ġcame ra", "Ġumbre lla", "co d", "Ġdri ving", "ĠM ike", "Ġbu ll", "Ġcra zy", "âĤ¬â Ģ", "Ġsh iver", "G o", "Ġwas hed", "Ġcarry ing", "Ġst age", "is k", "- c", "Ġpop ular", "Ġbe et", "Ġd ull", "umb ers", "âĤ¬Åĵ It", "Ġmiss ing", "ĠD ucky", "M ary", "Ġspark led", "\" Y", "Ġfriends hip", "Ġtr uth", "Ġme al", "Ġsee ds", "f a", "Ġflex ible", "Ġimpress ive", "Ġsn e", "Ġt ied", "Ġpe bble", "t ime", "Ġcare less", "Ġlibr ary", "Ġimag ined", "Ġcom b", "up er", "?\" .", "Ġdel iver", "Ġn ature", "Ġshe l", "Ġend ing", "Ġp atter", "Ġdest ro", "Ġjack et", "Ġpers ist", "Ġre ward", "Ġhand le", "is ion", "Ġfre sh", "Ġru bbed", "Ġingredient s", "Ġdream ing", "Ġsho cked", "ri c", "Ġpr ize", "oo my", "ĠD ave", "Ġs udden", "Ġcro cod", "Ġlo ad", "Ġen th", "ie f", "i bb", "Ġpi ge", "Ġpatter n", "\" R", "Ġcompass ion", "\" B", "Ġen vel", "Ġflash light", "Ġth irsty", "Ġsad ly", "Ġenc ou", "Ġstrange r", "Ġenth us", "in ce", "ĠF in", "Ġwhe els", "Ġdes k", "âĤ¬ÅĵLet Ã¢", "em ent", "ars h", "Ġread ing", "Ġw ire", "Ġdisco ver", "Ġear ly", "Ġmail box", "Ġfor k", "Ġs uit", "Ġnumber s", "Ġt em", "Ġpee ked", "Ġpen ny", "Ġbutterf lies", "\" Mommy", "a wn", "Ġcry st", "Ġsp illed", "Ġbrace let", "Ġt orn", "Ġr ug", "Ġg um", "Ġstop s", "l oo", "Ġre ce", "Ġen v", "Ġcomp ut", "Ġa head", "Ġspr ing", "ble d", "Ġor der", "Ġtow ers", "com fort", "Ġsor ts", "Ġob ject", "ell ig", "Ġw ing", "Ġbe nt", "Ġc ere", "Ġan x", "Ġsur f", "ĠB ear", "Ġpen gu", "Ġear th", "Ġint ellig", "Ġwar ned", "Ġwindow s", "ĠM ummy", "Ġspo ke", "Ġp ow", "ĠW hile", "Ġpu p", "g est", "Ġhum ble", "Ġun comfort", "Ġav o", "Ġp ant", "Ġnot e", "Ġuncomfort able", "ĠM andy", "Ġplace d", "ic hes", "Ġsunfl ower", "Ġpa le", "Ġtra vel", "Ġbad ly", "- a", "Ġold er", "Ġslide s", "Ġanx ious", "i kes", "Ġbig gest", "Ġsc ale", "Ġcom pl", "\"H elp", "Ġcouldn Ã¢", "Ġst ack", "Ġflut e", "Ġtr ap", "Ġstat ue", "Ġsc oot", "Ġcount ing", "Ġgrow ing", "Ġcook ing", "ĠP e", "Ġcomp let", "Ġli z", "Ġtunn el", "Ġbeet le", "Ġcelebr ate", "\" Good", "ho st", "Ġm el", "Ġcup board", "Ġmu sh", "Ġso fa", "ĠK im", "Ġn ail", "Ġharm less", "Ġsc atter", "ĠB ill", "Ġbeaut y", "Ġmo le", "Ġde af", "Ġval ue", "Ġn urse", "Ġs uper", "Ġper m", "Ġ er", "ĠHe re", "Ġsh ut", "Ġpersist ent", "Ġjump s", "Ġcrocod ile", "W hile", "Ġhun g", "Ġg host", "Ġgif ted", "Ġre fused", "Ġchar ming", "Ġtr ick", "ĠG ive", "Ġne at", "Ġnam es", "Ġcour age", "Ġy awn", "ct op", "Ġfl our", "ctop us", "Ġcr ane", "Ġc urt", "Ġpretend ing", "Ġpo ny", "Ġcere al", "Ġb ase", "Ġsandwich es", "ic es", "ĠL ola", "- old", "Ġra ven", "Ġsn uggled", "ĠTo by", "Ġcurt ain", "\"S orry", "Ġsupp ort", "Ġdestro y", "Ġt ur", "Ġord inary", "Ġch asing", "u d", "Ġun iver", "ĠL ook", "Ġquest ion", "Ġenvel ope", "ach es", "-c ream", "Ġdraw er", "\" Come", "Ġtri ang", "Ġv i", "Ġc amp", "Ġset t", "D aisy", "us ed", "Ġcomput er", "Ġo ctopus", "Ġatt ract", "Ġru les", "Ġcraw l", "Ġlive ly", "Ġs end", "Ġgl oomy", "A lice", "Ġcart oon", "a by", "Ġun cle", "Ġintellig ent", "ip s", "Ġm ay", "Ġpi ano", "Ġspe ed", "Ġpack age", "Ġblue ber", "Ġsh aking", "c u", "Ġhelm et", "Ġcryst al", "Ġneed le", "Ġmush room", "Ġtur key", "o e", "ĠE ventually", "Ġcoll ar", "Ġpar ade", "Ġcreature s", "st ri", "udd y", "he art", "âĤ¬Åĵ That", "Ġhur ry", "Ġtwirl ed", "Ġph ot", "Ġliz ard", "ill ie", "er able", "en ry", "u bby", "a ff", "or ant", "Ġal ert", "Ġmis erable", "Ġth ief", "g ust", "Ġst ation", "Ġsold ier", "Ġhun ter", "Ġpe pper", "ce ed", "Ġt ask", "arl ie", "Ġany where", "Ġd ug", "Ġdis gust", "Ġb icy", "Ġfire man", "\"S top", "Ġen er", "Ġcar p", "ie st", "Ġwish es", "c ut", "Ġse al", "Ġre sist", "\"O f", "Ġl ed", "Ġv ide", "Ġbe ep", "Ġign orant", "-a id", "Ġband age", "Ġstick ers", "co a", "Ġscr een", "Ġrad io", "Ġhelp less", "Ġboun ced", "t ter", "Ġtra sh", "G ive", "Ġsec ond", "Ġlea sh", "Ġrep e", "Ġpract iced", "Ġmu ff", "Ġsh ine", "Ġch ance", "Ġletter s", "Ġattract ive", "Ġimp at", "Ġm ill", "Ġstir red", "Ġcri cket", "Ġje ep", "Ġstret ched", "Ġno body", "ur b", "Ġthr ead", "Ġpast a", "Ġcu be", "Ġp and", "Ġch ubby", "Ġto oth", "um mer", "Ġf u", "Ġpige on", "s es", "Ġj et", "Ġg ir", "Ġcompassion ate", "c col", "ĠG eorge", "Ġcl ub", "ĠC l", "ccol i", "ar ian", "Ben ny", "ĠP olly", "Ġtr ump", "Ġdist urb", "or able", "Ġdecor ate", "Ġco coa", "Ġbright er", "Ġj ug", "Ġstep s", "Ġimpat ient", "Ġt ire", "Ġcompetit ive", "Ġfur ther", "Ġo tter", "Ġrespect ful", "Ġsuc ceed", "Ġtrouble d", "Ġpres sed", "ol in", "Ġit self", "a ked", "Ġb et", "S top", "Ġo stri", "n oon", "Ġcan dle", "Ġm ug", "ĠW h", "Ġafter noon", "Ġatt ic", "ĠA l", "Ġrest less", "Ġstart s", "Ġp un", "Ġt ap", "Ġsome where", "Ġr ibb", "ĠA re", "aur ant", "st ic", "Ġd ess", "Ġqu ar", "Ġcarp et", "Ġany way", "Ġshout s", "Ġsho e", "Ġdisgust ing", "Ġad orable", "Ġrest aurant", "Ġsk ip", "Ġle op", "Ġfor t", "g n", "Ġpa nts", "Ġv ine", "Ġtr ay", "Ġnut s", "Ġwa ff", "Ġc ase", "Ġg or", "Ġfear ful", "c ome", "Ġsc rew", "Ġenv ious", "Ġsweet heart", "op ter", "Ġc ards", "Ġall ig", "ic opter", "L ittle", "ia stic", "Ġdist ant", "Ġbro ccoli", "Ġenthus iastic", "Ġh ipp", "Ġfil thy", "ĠS h", "Ġgigg le", "Ġexp er", "Ġtrump et", "Ġcook ed", "Ġhel icopter", "Ġmonkey s", "- y", "n ight", "I f", "Gra ndma", "Ġre co", "Ġp or", "ĠW here", "ir it", "Ġsand box", "ar oo", "ang aroo", "Ġh ook", "ĠW ould", "gg ing", "\" Are", "Ġb ri", "ĠL ee", "Ġadm ire", "Ġnow here", "Ġt en", "Ġh arsh", "Ġback pack", "Ġso ar", "ĠBrown ie", "Ġs ent", "Ġb elt", "Ġbath t", "g ie", "Ġexpl ain", "Ġscoot er", "Ġa nts", "ll ie", "Ġme as", "op l", "Ġpo em", "er opl", "Ġcount ry", "cy cle", "Ġbatht ub", "Ġp ipe", "Ġa eropl", "Ġbar king", "Ġqu ite", "Ġun pack", "st airs", "Ġcow s", "p ar", "Ġspe ak", "Ġk angaroo", "Ġl id", "Ġsqu ash", "Ġleop ard", "Ġma ma", "Ġhapp ier", "Ġsp ell", "Ġtem p", "Ġrep air", "Ġlisten ing", "Ġbicy cle", "Ġse par", "im i", "ĠEvery thing", "Ġs ummer", "Ġst ared", "Ġcu sh", "Ġgrab s", "Ġmess age", "Ġbre at", "Ġdidn Ã¢", "uc t", "Ġostri ch", "Ġfire work", "ĠA lex", "Ġhum an", "Ġloo p", "Ġgive n", "Ġc omet", "Ġmu le", "h ood", "ap a", "Ġsor t", "Ġimp ro", "J enny", "Ġgor illa", "ĠJoe y", "S ee", "Ġmod est", "Ġpa id", "Ġfind s", "!\" .", "Ġyog urt", "-y ear", "Ġdess ert", "Ġme at", "Ġob ser", "Ġvi olin", "Ġu r", "ĠS ophie", "Ġhe dge", "i pping", "Ġsp irit", "ĠS m", "Ġpull s", "Ġtri pped", "s hed", "Ġjelly fish", "Ġmel on", "Ġspl it", "Ġpaw s", "Ġallig ator", "Every one", "Ġresc ue", "Ġs ize", "Ġho les", "Ġpro v", "uck ed", "\"W ho", "Ġro ared", "Ġf ive", "Ġforg ave", "ĠP at", "Ġcat s", "Ġwhe at", "Ġp urse", "Ġreco gn", "Ġhipp o", "Ġpil ot", "Ġha ll", "Dad dy", "Ġt ax", "Ġshe et", "W ho", "Ġp al", "Ġca ct", "Ġin se", "Ġpus hing", "oph one", "Ġbike s", "Ġorgan ize", "c i", "Ġswing ing", "Ġs le", "Ġra ft", "Ġsal t", "Ġsc old", "Ġstart ing", "Ġsh ade", "Ġbeh ave", "Ġb in", "Ġlight ning", "Ġf le", "Ġo at", "Ġr ice", "ĠSn ow", "Ġhair cut", "Ġtriang le", "e er", "Ġbu zz", "Ġener gy", "isk ers", "ĠTweet ie", "âĤ¬Åĵ You", "Ġb ur", "Ġkn ot", "Ġfrown ed", "b ul", "Ġle ar", "al ed", "Ġlearn t", "Ġe ither", "Ġpor ch", "Ġma th", "Ġrid ing", "Ġp ed", "Ġli p", "lc ano", "se um", "Ġtra ins", "eb ook", "\"O w", "Ġend ed", "Ġnot ebook", "Ġstick er", "il ing", "in king", "Ġl end", "\" Me", "Ġwall et", "Ġl uck", "Ġeven ing", "r eci", "Ġpand a", "t e", "Ġcact us", "Ġjo kes", "Ġch alk", "Ġbanan as", "Ġpap ers", "Ġro d", "Ġmu seum", "Ġswe ater", "Ġapp reci", "Ġli ons", "Ġpal ace", "u be", "Ġtax i", "Ġvo lcano", "Ġshop keeper", "Ġch ain", "Ġstrawber ry", "Ġbear s", "Ġroll ing", "Ġbo ots", "Ġer as", "\" A", "Ġhad n", "ast ic", "Ġneighb our", "Ġbar rel", "Ġsh akes", "f fe", "Ġmic r", "ic er", "ff ee", "oo ped", "Ġsil ver", "ur ch", "Ġla und", "Ġal ive", "Ġsmell s", "Ġm ild", "pl ay", "Ġre ind", "Ġso ck", "ĠR ed", "ĠJ erry", "Ġlaund ry", "Ġste ak", "ĠAnd y", "Ġavo c", "Ġin k", "Ġpo le", "Ġstr ugg", "ir on", "Ġpus hes", "ĠT r", "Ġput ting", "Ġvis ited", "Ġgo al", "Ġsoft ly", "Ġmagn et", "Ġju dge", "ed y", "Ġtri cks", "Ġdraw ings", "Ġmicr ophone", "Ġcl apping", "Ġp ad", "Ġo l", "Ġh ive", "Ġsh ield", "Ġt ube", "Ġlea ned", "Ġcol ours", "Ġsail or", "Ġsho vel", "Ġair port", "Ġzoom ed", "Ġfall ing", "Ġr ag", "Ġbelong s", "Ġshel ter", "ag gie", "Ġunl ock", "Ġspr ink", "Ġche cked", "el ery", "ha ppy", "Ġin sist", "Ġpengu in", "Ġquar rel", "Ġam bul", "Ġclimb ing", "Ġmar ched", "ĠP aul", "Ġg ro", "Ġdis play", "Ġreind eer", "hin o", "Ġsa us", "ĠB et", "en se", "S orry", "c ast", "Ġaeropl ane", "Ġd ive", "Ġdis hes", "op hy", "Ġpol ish", "Ġbark s", "g es", "Ġav ail", "Ġdon Ã¢", "Ġfield s", "Ġgra pes", "Ġsand cast", "Ġambul ance", "Ġpe ek", "a it", "Ġapolog ized", "Ġy ach", "Ġso il", "Ġco ffee", "Ġsk ill", "ĠP apa", "se ly", "Ġcostum e", "Ġele v", "Ġo y", "Ġtr ophy", "Ġfeel ings", "Ġplan et", "ĠO r", "Ġhop ing", "an ic", "Ġfil m", "Ġpr un", "Ġrubb er", "r on", "Ġun happy", "Ġ art", "Ġdrop s", "Ġshr imp", "n ger", "ĠB unny", "Ġmed al", "Ġk itty", "âĤ¬âĢ ľ", "Ġthank s", "Ġrain ing", "Ġm en", "ch anic", "Ġst om", "Ġminut e", "Ġelev ator", "Ġc elery", "Ġc ord", "Ġon ion", "Ġr hino", "Ġavail able", "ect ed", "Ġeras er", "Ġinc l", "Ġp age", "Ġsh ort", "Ġyach t", "ree ze", "Ġshould n", "Ġfish er", "Ġperfect ly", "Ġimag ine", "Ġw ool", "Ġmar ry", "Ġwin ter", "Ġbasket ball", "Ġme chanic", "ĠB uddy", "Ġdi ary", "n am", "Ġbu l", "Ġher b", "Ġfl ies", "Ġcompl ete", "Ġre ver", "Ġapp l", "Ġclos ely", "Ġcard board", "Ġinse ct", "Ġmag az", "Ġeag erly", "Ġplay er", "ĠWh iskers", "e ath", "Ġjourn al", "ĠW ill", "Ġba king", "Ġv end", "Ġqu it", "Ġf urn", "Ġgl ove", "it ure", "ĠSm ith", "Ġdis ag", "Ġfurn iture", "Ġstuff ed", "Ġt ub", "Ġbreak s", "Ġimag ination", "Ġbul b", "Ġtreasure s", "Ġch urch", "g en", "ec ause", "Ġcount er", "an y", "Ġw ife", "Ġhead ed", "Ġcool er", "a zz", "Ġp air", "Ġfree z", "Ġfrog s", "Ġt ut", "qu it", "Ġsk ull", "ma nd", "or ies", "Ġp it", "Ġkn ob", "w een", "\"W here", "Ġfa ctor", "st ead", "r ight", "Ġsw itch", "Ġfoot ball", "pl ace", "Ġoff er", "id es", "Ġsun set", "Ġbet ween", "Ġli e", "if l", "aul ifl", "Ġche ek", "C h", "Ġs ym", "Ġsw ung", "Ġfactor y", "Ġcup s", "ĠT ed", "Ġmotor cycle", "Ġchir p", "Ġmo s", "quit o", "Ġfl ame", "Ġtw ink", "Ġshout ing", "na ment", "Ġpain ter", "Ġgo lf", "Ġpe ach", "Ġor nament", "ke let", "Ġblow ing", "Ġh ut", "Ġsun g", "af fe", "p e", "Ġhot el", "Ġsee ing", "Ġc aulifl", "Ġfold er", "Ġvend or", "c cer", "ĠM imi", "l ass", "Ġvide o", "Ġmix er", "a b", "iz es", "bo l", "Ġthrow s", "Ġpir ates", "Ġcreat ed", "ors es", "Ġhead s", "Ġo il", "Ġk ay", "Ġfr ame", "Ġmos quito", "ang u", "\" Why", "Ġcush ion", "m m", "Ġso ccer", "ĠMar ia", "Ġfisher man", "Ġco al", "ĠB un", "z zy", "Ġsym bol", "Ġhorse s", "Ġc able", "cer os", "Ġpo pped", "Ġl angu", "Ġwip e", "Ġp ine", "ĠB aby", "Ġatt ention", "Ġs kelet", "Ġbatter y", "Ġpow der", "Ġcaulifl ower", "Ġstu d", "Ġla ser", "e f", ". .", "re nder", "Ġforgot ten", "Ġwe ather", "ĠL illy", "ro d", "Ġli ves", "Ġm op", "os ie", "Ġcelebr ated", "Ġfish ing", "Ġa x", "Ġr ot", "Ġs ince", "Ġtra il", "\" Lily", "ĠI Ã¢", "el come", "Ġma ze", "aw s", "Ġphot o", "ĠGo d", "it es", "Ġyog a", "Ġsur round", "ĠR o", "Ġwa ving", "ĠGra ce", "Ġsle pt", "Ġsne ak", "Ġan ch", "Ġde ar", "un ately", "Ġgir affe", "Ġint rod", "Ġrhino ceros", "Ġpo ke", "Ġsw amp", "Ġfle a", "In side", "Ġpoin ts", "Ġit ch", "Ġglow ing", "Ġpoin t", "Ġit Ã¢", "Ġfire place", "Ġbr eeze", "n ey", "lass es", "Ġsu b", "Ġv et", "Ġsung lasses", "Ġking dom", "ĠAnn ie", "Ġmem ories", "ĠCh arlie", "Ġtut or", "Ġstre ng", "Ġtun a", "Ġ iron", "Ġre ve", "Ġv est", "sp ap", "ĠS andy", "Ġpet als", "Ġfo g", "Ġmist akes", "Ġax e", "Ġcompl ain", "Ġbase ball", "Ġdance r", "Ġchick ens", "Ġpare nt", "Ġ ig", "her o", "Ġnew spap", "Ġstreng th", "Ġgre edy", "Ġce iling", "ck ey", "Ġsquirrel s", "Ġho ckey", "Ġig loo", "Ġs ir", "Ġgr in", "Ġanch or", "Ġskelet on", "ro sc", "Ġsniff ed", "Ġgro cer", "Ġsuper hero", "Ġarg ue", "ĠU n", "Ġnap kin", "ch ie", "E ventually", "Ġgold en", "u es", "Ġhang ing", "Ġtr ave", "Ġmusic ian", "med i", "Ġsk irt", "ĠTo ny", "rosc ope", "Ġst aff", "Ġtemp le", "Ġun if", "Ġag ree", "Ġsqu e", "Ġbu ry", "medi ately", "Ġthe ater", "Ġdis cu", "Ġunif orm", "Ġeat en", "ĠJ ess", "Ġsl ipper", "Ġwelcome d", "Ġse as", "Ġshould er", "Ġz ipper", "Ġquiet ly", "ss ible", "Ġmeet ing", "Ġl ime", "Ġinv est", "ist ol", "Ġmic roscope", "Ġpin ch", "ch air", "Ġfl apped", "Ġslipper y", "Ġaccept ed", "Ġf ought", "Ġinvest ig", "Ġp istol", "er c", "Ġdoor s", "Ġmin er", "ree k", "Ġrad ish", "Ġpl astic", "Ġthrow ing", "Y ay", "Ġcall s", "Ġboun cing", "t ress", "To day", "Ġmat tress", "m en", "ĠIn stead", "Ġsur render", "Ġco b", "ace s", "h ouse", "Ġpe ar", "Ġcre ek", "Ġv room", "Ġkay ak", "Em ma", "t ain", "Ġmo ves", "Ġstick y", "Q u", "Ġlaw y", "ĠH enry", "Ġno vel", "all ey", "Ġcu b", "Ġavoc ado", "Ġc ared", "Ġs uff", "Ġfreez er", "Ġlot ion", "au d", "c ase", "l er", "is on", "ĠM illie", "w as", "Ġfa uc", "an ny", "Ġarm chair", "Ġwr iting", "in ked", "Ġre ef", "Ġmake up", "Ġmyster y", "Ġv alley", "w eb", "Ġt ug", "Ġinvestig ate", "Ġnew s", "Ġsail ing", "Ġcher ries", "Ġreg ret", "Ġcri b", "was her", "im ney", "Ġex erc", "Ġoy ster", "Ġfauc et", "Ġag re", "Ġsplas hing", "ĠK ate", "Ġtick et", "\"H ere", "Ġcollect ed", "Ġwor th", "Ġch imney", "Ġto il", "To gether", "Ġpresent s", "Ġdish washer", "Ġmagaz ine", "Ġhapp ens", "Ġspray ed", "Ġwa gs", "âĤ¬ÅĵIt Ã¢", "N ext", "Ġpre vent", "Ġcob web", "Ġqu ack", "Ġve il", "Ġcast les", "Ġent ered", "Ġte ar", "Sam my", "Ġshr ugged", "Ġh ar", "Ġpass port", "Ġappl aud", "Ġch ess", "Ġsepar ate", "Ġscold ed", "le nd", "\" This", "Ġwe igh", "Ġtoil et", "Ġal arm", "ĠDan ny", "ive s", "Ġblanket s", "Ġr ake", "Ġign ored", "Ġt ucked", "Ġlawy er", "Ġcho ice", "i ved", "Ġhop es", "Ġatt ach", "Ġcoat s", "Ġcand les", "Ġfollow s", "Ġkiss es", "Ġapp ro", "Ġclass room", "ĠR u", "r ing", "Ġpudd les", "Ġeas ily", "Ġap art", "et y", "s it", "Ġdisapp ear", "Ġbee f", "Ġchair s", "Ġburn ed", "Ġbo ther", "Ġlet ting", "Ġstra ight", "ĠN ext", "eter in", "eterin arian", "Ġy ield", "Ġw ard", "Ġdress ed", "Ġcan e", "Ġtrust ed", "Ġlangu age", "Ġsize s", "Ġv eterinarian", "Ġra z", "Ġtele ph", "ra ged", "Ġcar ing", "Ġplan es", "Ġward robe", "Ġjewel ry", "at ched", "Ġbl inked", "id ay", "Ġshow er", "Ġr ise", "\" Please", "Ġmiss ile", "ĠS u", "Ġkeep ing", "Ġla wn", "Ġre qu", "Ġst able", "Ġcabin et", "Ġcross ed", "Ġo ak", "ĠH arry", "r s", "Ġbooks he", "v ision", "M andy", "Ġst ro", "Ġteleph one", "Ġnewspap er", "m end", "Ġcl aws", "Ġroom s", "Ġs igh", "Ġpuzz les", "Ġa ut", "Ġtr ade", "A nn", "Ġinc re", "iv al", "Ġc ell", "Ġwhisp er", "Ġtorn ado", "Ġscr atch", "un a", "ange s", "Ġbook case", "Ġin f", "amp oo", "Ġblueber ries", "Ġsn ap", "Ġamaz ement", "a ppy", "ĠM iss", "Ġper fu", "ct ion", "om mend", "Ġsqu eezed", "Ġbookshe lf", "Ġrec ommend", "Ġop era", "ĠR osie", "Ġsub way", "Ġp ra", "at ie", "Ġg ym", "Ġdel ay", "Ġgr ill", "ĠS ee", "ĠA b", "Ġraz or", "Ġbl ouse", "Ġrequ est", "Ġcraw ling", "ĠHe lp", "Ġp ur", "Ġpo ked", "Ġtele vision", "Ġb ill", "Ġho l", "gg y", "Ġfollow ing", "om es", "ict ion", "Ġsh ampoo", "ĠTr ue", "Ġf ile", "Ġli cks", "Ġsp ear", "Ġsqu eeze", "Ġhol iday", "Ġexper ience", "Ġl umber", "Ġimpro ve", "Ġmin t", "Ġperfu me", "Ġser ve", "Ġde mand", "Ġste am", "Ġcl iff", "Ġring ing", "Ġcr ow", "fort unately", "iction ary", "bb ie", "Ġribb on", "Ġim mediately", "Ġhelp er", "Ġmuff in", "Ġfe st", "Ġgrow led", "Ġis n", "Ġbe gged", "Ġd ictionary", "Ġmat ches", "Ġshr ink", "Ġwas te", "Ġbl ood", "Ġbird c", "Ġpr op", "Ġide as", "Ġwarm th", "i b", "Ġmust ache", "Ġsn eeze", "or es", "ĠJ ul", "Ġinv ite", "h ic", "Ġg ear", "Ġbirdc age", "Ġve hic", "Ġfu el", "Ġal right", "Ġrabbit s", "uck ily", "as is", "Ġca lend", "Ġwe ep", "Ġy ucky", "ĠR e", "Ġflut ter", "Ġinst r", "Ġfall en", "Ġmar ried", "Ġber ry", "l ier", "Ġra il", "Ġr ow", "Ġpast ry", "D id", "Ġref re", "uc ture", "Ġworm s", "Ġstr ucture", "Ġlaug ht", "Thank s", "Ġsurprise s", "Ġbrave ly", "Ġbel ow", "Ġcalend ar", "Ġo asis", "ĠCl ara", "Ġwander ed", "Ġb le", "Ġw igg", "Ġkne el", "is ing", "Ġdir e", "Ġunderstand ing", "Ġhurt ing", "Ġlaugh ter", "ome day", "Ġdra in", "Ġp ages", "Ġheart s", "Ġen ter", "Ġair pl", "ink y", "Ġit em", "ĠI s", "om ob", "Ġhar b", "a h", "Ġreach es", "Ġap ron", "as p", "Ġsafe ty", "ĠSt e", "Ġflo at", "Ġcra sh", "Ġaut omob", "Ġbath e", "Ġbu ried", "Ġj unk", "âĤ¬Åĵ No", "Ġbuck le", "Ġadm ir", "Ġro ot", "Ġcap tain", "Ġstrawber ries", "Ġmy self", "ach el", "Ġrelax ed", "Ġsandcast le", "or al", "Ġign ore", "Ġskill s", "Ġplate s", "L isa", "' ve", "Ġwh ip", "ĠK ing", "?\" Ċ", "Ġsp ade", "Ġmoment s", "ĠF o", "Ġrever se", "ht ray", "!\" Ċ", "ĠW ho", "ic ing", "Ġqu iz", "Ġas htray", "Ġfest ival", "ar i", "Ġbe amed", "Ġsn apped", "ri ger", "Ġsome day", "Ġref riger", "Ġra ise", "c akes", "Ġrece ived", "Ġrefriger ator", "! '", "Ġear lier", "Ġt ong", "Ġli c", "ĠFred dy", "Ġwe ap", "Ġv ac", "Ġteac hing", "Ġma ss", "Ġharb or", "ĠPe ople", "Ġmod el", "ĠSnow y", "Ġspark ling", "Ġspot s", "ap ed", "Ġinsist ed", "Ġsa ving", "Ġvan ished", "Ġso cks", "Ġbump ed", "ĠIt s", "Ġth umb", "a nna", "Ġd ried", "Ġsupp ly", "iss ion", "Ġblack board", "ig ail", "Ġprep are", "Ġj ail", "Ġjew els", "Ġspend ing", "Ġbal an", "Ġscatter ed", "ĠBe fore", "x y", "Ġto es", "Ġsc ooped", "Ġsett led", "Ġperm ission", "Ġspark le", "Ġkn own", "ct ly", "Ġbreath e", "Ġbo ot", "-up s", "Ġyawn ed", "Ġr es", "ĠM ay", "am ber", "ĠJ ames", "Ġa chie", "Ġdestroy ed", "Ġbath robe", "Ġte ase", "Ġrem ain", "Ġhard ly", "Ġencou raged", "Ġrepl ace", "Ġwaff le", "ant ly", "O k", "W ith", "Ġpr ide", "Ġlemon ade", "Ġd are", "Ġhang er", "Ġsit s", "Ġpull ing", "ĠH ave", "Ġdecor ations", "st ers", "Ġrem ove", "P eter", "Ġcudd led", "op s", "Ġh ate", "Ġd aisy", "Ġlic ense", "av id", "Ġbean s", "Ġs imp", "Ġp ort", "Ġresp ons", "iz ard", "Ġpra ised", "s ing", "re at", "Ġchirp ing", "Ġhit s", "ent s", "Ġe qu", "Ġfast est", "Ġsuff er", "xt ure", "Ġbuzz ing", "Ġpatient ly", "Ġdress es", "Ġm ention", "Ġble ed", "s ity", "Ġr hy", "Ġautomob ile", "n ies", "Ġappreci ate", "Ġpo ppy", "Ġdest ination", "You r", "Ġtall er", "Ġm all", "o sed", "Ġhome s", "Ġn ation", "i um", "Ġd igg", "Ġfl av", "Ġclimb s", "Ġgu y", "Ġwas hing", "Ġp alm", "Ġgl o", "Ġsh ot", "Ġlab el", "Em ily", "Ġbelie ved", "Ġdi gging", "Ġappro ached", "Ġhe sit", "f ied", "M mm", "R e", "Ġn one", "Ġto re", "Ġdeep er", "Ġw ine", "Ġinf ant", "u de", "Ġrest ore", "Ġsc ore", "Ġher s", "ĠT ina", "r m", "Ġm itten", "Ġch amber", "W ill", "ĠO llie", "Ġsaus age", "Ġstrugg ling", "Ġhe at", "Ġdiffere n", "Ġtong ue", "Ġhill s", "Ġhur ric", "Ġpun ish", "Ġpillow s", "Ġbill board", "Ġsn eezed", "Ġsp ort", "Ġw izard", "A ll", "ĠE ach", "Ġup stairs", "Ġthr illed", "Ġprov ide", "Ġbr ain", "Ġaw e", "Ġdiscu ss", "J ake", "Ġpa nic", "Ġwar ning", "Ġtwist ed", "Ġgl owed", "Ġuniver se", "Ġfire f", "Ġthe rm", "Ġvac ation", "Ġwor se", "Ġcr unch", "Ġpo ison", "B ye", "Ġshe d", "Ġsol ved", "Ġpart s", "os ity", "ĠC o", "be y", "Ġe vent", "Ġset ting", "all en", "Ġto ur", "Ġrem ained", "M ark", "Ġairpl ane", "Ġhurric ane", "Ġtherm omet", "Ġplay s", "W elcome", "Ġexam ine", "Ġspark les", "Ġshoot ing", "Ġinv it", "Ġneighbor hood", "Ġst y", "Ġch ores", "Ġorange s", "Ġflo ated", "Ġran ch", "Ġch allen", "ĠM aggie", "th m", "Ġweek s", "Ġle ak", "ĠEvery day", "Ġuniver sity", "Ġpaint s", "Ġthermomet er", "Ġbit es", "The se", "Ġrepe at", "Ġba ng", "ad ium", "Ġflo ating", "Ġfix ing", "g ing", "Ġmeasure d", "ĠBet sy", "Ġst adium", "Ġgrin ned", "d o", "Ġd uring", "!\" ,", "Ġsurround ed", "Ġsupp osed", "asp oon", "Ġcon f", "Ġrhy thm", "Ġmass age", "Ġbr ings", "F l", "Ġpa used", "Ġch erry", "Ġgif ts", "Ġf ut", "Ġsprink les", "Ġfa sc", "Ġfu ture", "Ġmem ory", "âĤ¬ÅĵI Ã¢", "Ġte aspoon", "Ġgre y", "ri se", "Ġcollect ion", "Ġsign s", "J en", "Ġmarble s", "N ot", "bb les", "Ġj azz", "Ġstom ach", "ĠBu zz", "Ġg ust", "em ember", "Ġwis dom", "Ġact ually", "Ġfl ood", "Ġdisco very", ".\" Ċ", "Ġincl ud", "Ġse w", "Ġvehic le", "Ġt ide", "Ġl ily", "- ray", "Ġgirl s", "Ġsun rise", "\" Go", "ĠG ood", "is hing", "ĠL iz", "v et", "âĤ¬ÅĵThat Ã¢", "Ġme owed", "l s", "Ġelephant s", "Ġur ge", "Ġexerc ise", "Ġmail man", "Ġl ugg", "um ble", "Ġdec ision", "Ġchew ed", "Ġru sh", "He lp", "Ġweap on", "Ġstr ang", "Ġobser ve", "Ġlugg age", "Ġun ite", "Ġcartoon s", "er o", "Ġso re", "Ġfasc in", "Ġtomato es", "i ers", "Ġsc ur", "Ġpo ssible", "Ġto e", "ĠL ater", "all ow", "c les", "Ġsun light", "?\" .ĊĊ", "it ies", "Ġfold ed", "\" Anna", "Ġcur led", "Ġ V", "Ġchir ped", "\"R e", "Ġr ust", "Ġmelt ed", "ĠRu by", "Ġsp ill", "Ġcake s", "u ing", "Ġs ip", "Ġcollect ing", "Ġ x", "Ġgr ape", "s on", "ĠJo y", "Ġminer al", "ĠR achel", "? ĊĊ", "Ġbr us", "\" Be", "e ed", "Ġdifferen ce", "Ġproblem s", "Ġb ak", "L e", "Ġtra cks", "Ġjo gging", "John ny", "Ġwhere ver", "ĠM e", "Ġmountain s", "ip ment", "Ġb es", "Ġslid ing", "er ation", "Ġman age", "Ġequ ipment", "et ch", "Ġla id", "Ġli ck", "Ġadmir ing", "Ġwater ed", "c ious", "Ġsat is", "Ġcont ain", "Ġbri cks", "ĠSp ike", "o ved", "Ġtwig s", "r r", "ĠSome one", "Ġpattern s", "Ġkind ly", "Ġpet ted", "Ġsk ipping", "Ġpotato es", "Ġsea ts", "E x", "b ers", "Ġsoldier s", "Ġglove s", "Ġspace s", "z ag", "joy ed", "un day", "Ġrece ive", "Ġkeep er", "Ġco pper", "Ġe mer", "Ġsl ice", "Ġlet s", "Ġg ain", "dd y", "Ġcontin ue", "Ġord ered", "Ġstranger s", "w alk", "Ġover joyed", "Ġwatch es", "Ġgot ten", "Ġpi gs", "om as", "Ġz ipped", "m other", "ĠS unday", "Ġland s", "Ġwhist ling", "Ġg az", "Ġbe side", "- se", "âĤ¬Åĵ Thank", "Ġsaf ari", "Ġbe g", "Ġpray ed", "\" Give", "ĠC at", "Ġpe ered", "Ġnet work", "ĠSte ve", "bb led", "Ġsp it", "Ġe ff", ": ĊĊ", "Ġinvit ation", "Ġmarch ing", "Ġour s", "S usie", "as es", "Ġgl itter", "ĠP enny", "Ġwood en", "Ġearth qu", "Ġside walk", "Ġeag le", "ig zag", "Ġdog gy", "Ġdrink s", "Ġgrocer y", "ir p", "Ġwe ight", "Ġn avy", "Ġacorn s", "Ġatt ached", "Ġra ised", "Ġdisag reed", "l oe", "Ġwere n", "ĠP oppy", "ĠLet Ã¢", "ĠM illy", "Ġbe at", "- and", "Ġcomp any", "Ġm ister", "Ġburn ing", "f y", "Ġon wards", "A l", "he st", "\" ,", "Ġw re", "Ġhapp iest", "S t", "ĠSp ark", "M oral", "Ġra cing", "Ġbr id", "Ġcra shed", "Ġspoon s", "Ġf ed", "Be fore", "Ġcrunch y", "Ġpeanut s", "Ġwhist led", "ĠSh aring", "Ġpr ice", "-se ek", "Ġme ow", "Ġhur ried", "Ġhis t", "Ġoffice r", "ĠR a", "Ġbr ick", "Ġacc om", "Ġtre mb", "Ġrefre shed", "Ġp ies", "Ġrem em", "Ġfl ap", "Ġwork s", "Ġcle aring", "n ie", "ĠS ad", "Ġop eration", "Ġprep ared", "Ġbow ed", "Ġscr atched", "Ġremember s", "Ġhist ory", "Ġex a", "ad ed", "Ġl ips", "am b", "ĠK atie", "Ġfirework s", "Ġprun e", "âĤ¬Åĵ We", "Ġescape d", "Ġdinosaur s", "Ġmen u", "ĠAb igail", "Ġbridge s", "Ġtal ent", "Ġplan ted", "am ie", "Ġbuild ings", "Ġreve aled", "âĤ¬ .", "Ġeas ier", "Ġby e", "Ġturn ing", "Ġcom fy", "Ġscream s", "Ġol ive", "Ġbr and", "ĠCh r", "Ġ Qu", "Ġha ted", "Ġc hat", "Ġsel ling", "Ġsnow ball", "d ie", "ĠL una", "Ġrecogn ized", "Ġw arn", "Ġaccom pl", "Ġcre pt", "Ġpre cious", "ĠZ oe", "Ġland sc", "omet hing", "ĠF ro", "Ġstr ip", "ĠN ot", "Ġmud dy", "Ġpa dd", "Ġw id", "Ġdrink ing", "Ġs ings", "xy gen", "Ġbed s", "Ġpu pp", "ect ure", "Ġsett le", "Ġearthqu ake", "ĠM at", "Ġsimp le", "I s", "Ġeff ort", "c c", "\" My", "ĠRe my", "Ġremind er", "Ġspaces hip", "Ġmeas uring", "Ġsl ip", "Ġper ched", "Ġl ecture", "Ġb ones", "Ġser ved", "Ġapp ear", "Ġwonder s", "Ġshadow s", "Ġwait s", "Ġvoice s", "âĤ¬Åĵ Can", "Ġcudd le", "Ġevery day", "Ġped al", "Ġp itch", "Ġcomfort ed", "Ġagree ment", "Ġrespons ible", "Ġcirc us", "Ġrain ed", "Ġv el", "Ġob ey", "ff ic", "W ould", "Ġv ict", "Ġt ip", "Ġso ared", "Ġall ow", "Ġany time", "Ġtra pped", "Ġc al", "Ġwhat ever", "Ġz igzag", "Ġtast es", "Ġapolog ize", "Ġlandsc ape", "Ġcut ting", "Ġsucceed ed", "Ġsho pping", "Ġran g", "Ġpet s", "Ġsecret s", "Ġvill ag", "Ġfa sh", "ĠD avid", "Ġvel vet", "Ġprin ter", "Ġdisturb ed", "Ġwa ist", "Ġitem s", "Ġswim s", "Ġb un", "Ġtra ffic", "Ġpract icing", "Ġste el", "Ġbring ing", "Ġoat s", "Ġexa ctly", "Ġsister s", "Ġrest ed", "Ġvisit ing", "Ġsc oop", "Ġact iv", "L uckily", "Ġcostum es", "anna h", "Ġansw ers", "ĠFr ank", "!\" .ĊĊ", "iz ing", "Ġol ives", "i en", "m ble", "Ġbrush ed", "Ġsty le", "Ġmouth s", "ĠP r", "' .", "Ġso ak", "la ire", "Ġcuri osity", "ish es", "Ġout do", "n eath", "Ġbreak ing", "Ġfash ion", "ĠS unny", "Ġre le", "Ġown ed", "Ġlady b", "Ġencou rage", "ĠN ut", "âĤ¬Åĵ Don", "Ġkn elt", "Ġfascin ated", "Ġlea ther", "m are", "Ġim age", "igg y", "Ġvillage rs", "om ing", "Ġnail s", "Ġben eath", "ic orn", "Ġunder ground", "Ġwaff les", "T weet", "Ġun icorn", "Ġsad ness", "ent y", "ter day", "Ġunl ocked", "ind a", "Ġd ied", "Ġrecogn ize", "ĠIt Ã¢", "Ġdown stairs", "Ġcre ation", "Ġcatch ing", "ĠCh irp", "Ġgrand mother", "\"Y uck", "Ġo xygen", "ist en", "Ġmonster s", "Ġtremb le", "Ġche f", "ĠJ e", "Ġeat s", "\"Y ay", "ĠThe se", "Ġpup il", "i k", "Ġwant ing", "Ġnight mare", "Ġjo gged", "Ġc ape", "Ġstri pes", "Ġdoctor s", "Ġso aring", "Ġblueber ry", "le y", "ĠHow ever", "Ġstr uggled", "Ġlem ons", "ĠB eth", "Ġwonder ing", "Ġbleed ing", "Ġpun ished", "Ġg ained", "Ġfam il", "ay la", "d am", "Ġf etch", "ĠSome thing", "Ġexam ined", "Ġnice r", "Ġguess ed", "Ġplan ned", "Ġdra g", "Ġc aut", "Ġsit u", "Ġmachine s", "Ġmiss ion", "F irst", "Ġsteal ing", "Ġarg ued", "u ke", "Ġare a", "ĠF irst", "Ġcomp le", "Ġpi les", "Ġs i", "Ġherb s", "Ġfree ze", "\"B ye", "Ġintrod uc", "Ġstir ring", "Ġr ipped", "Ġs ix", "Ġchallen ge", "Ġt ugged", "Ġstud ied", "Ġfire men", "U n", "Ġbe nd", "Ġb are", "Ġwa gging", "Ġzoom ing", "Ġaccident s", "Ġvict ory", "ĠO w", "Ġsatis fied", "Ġwre ck", "ĠSu zy", "Ġinstr uct", "Ġprop erly", "ag ull", "Ġkey s", "ul u", "D ave", "Ġwin ning", "Ġshiver ing", "ĠUn cle", "loo king", "Ġbun nies", "Ġincre ase", "u x", "d ing", "Ġgather ing", "Ġtun e", "Ġm ice", "Ġex it", "Ġfiref ight", "Ġoutdo ors", "Ġwin ner", "Ġtwirl ing", "Ġsl apped", "Ġload ed", "Ġte asing", "Ġpe el", "Ġdecor ated", "ĠK e", "ux u", "Ġdes er", "Ġsupp lies", "Ġyell ing", "Ġneighbour hood", "Ġse agull", "Ġunder neath", "Ġperm it", "- looking", "Ġsight s", "Ġtick ets", "us an", "Ġan n", "Ġpan cakes", "o h", "Ġbeg in", "Ġbur row", "Ġpe arl", "Ġride s", "Ġsir en", "Ġpe aches", "ĠJ an", "Ġmix ing", "Ġrele ased", "Ġdraw s", "Ġwe ighed", "ak y", "Fl uffy", "en a", "ĠT w", "Ġsne aked", "ic a", "ĠFl oppy", "ind y", ". '", "Ġconf ident", "Ġreal ize", "Ġinstruct ions", "Ġspid ers", "Ġintrod uce", "Ġl uxu", "Ġd am", "Ġmuff ins", "s hing", "L ola", "Ġcont ro", "- b", "C l", "Ġlet Ã¢", "Ġpin ched", "\"W ait", "Ġbu dge", "Ġsol ut", "Ġz ero", "Ġcompetit ion", "ĠL ucky", "ĠJul ie", "ĠNut ty", "Ġprin ted", "Ġstudy ing", "Ġlo ving", "Ġbeh a", "Ġin ch", "Ġpocket s", "ĠCo co", "Ġba ked", "al es", "Ġstr uck", "âĤ¬Åĵ Look", "ĠD id", "ĠRa bbit", "Ġshould ers", "Ġb unch", "Ġop in", "Ġline s", "Ġfro sting", "Ġre lease", "Ġdecide s", "S ometimes", "Ġgigg ling", "Ġbro om", "ĠL ike", "Ġour selves", "B ella", "Ġwe b", "Ġpast el", "ll ed", "ĠP ip", "Ġstamp s", "Ġcon es", "n es", "Ġemer gen", "âĤ¬Åĵ Hello", "Ġst air", "Ġst itch", "bb ing", "G eorge", "ĠS top", "ĠO l", "Ġprun es", "Ġladyb ug", "Ġside s", "o ed", "Ġ Y", "Ġgra nt", "Ġscur ried", "Ġstr ings", "âĤ¬âĢ Ŀ", "Ġt im", "a is", "Ġmark s", "\"W ell", "M ike", "M r", "Ġru ler", "Ġpe ars", "And y", "g ers", "T eddy", "W ait", "B ecause", "ed nes", "ednes day", "Ġrepe ated", "Ġdri ft", "Ġkeep s", "Ġag o", "Ġclap s", "Ġpo king", "ĠA m", "ant a", "âĤ¬Åĵ This", "ay s", "ĠB ig", "Ġcrow d", "ĠH op", "Ġru in", "Ġprin ts", "k ins", "l ow", "Ġbrush es", "Ġkick ing", "Ġstretch ing", "Ġdemand ed", "ĠTh omas", "l en", "Ġst ing", "o dy", "Ġneighb ors", "Ġmention ed", "ir a", "Ġm ast", "ow ers", "Ġtouch ing", "Ġto night", "Ġprotect ed", "ĠChirp y", "Ġwrite s", "Ġsweet ies", "ĠJo sh", "Ġgood night", "ues day", "Ġyou th", "Ġbucket s", "Ġribb ons", "v a", "j am", "uct antly", "ĠW ednesday", "ti est", "as hed", "Ġpret tiest", "ĠCh loe", "Ġforg i", "Ġv ent", "Ġpark ed", "ick y", "ex p", "Ġpro ject", "Ġcamp ing", "Ġso aked", "z ie", "ĠT iny", "Ġbar ely", "Ġhorn s", "Ġboun cy", "ic ked", "b ies", "M ar", "ri age", "h ins", "Ġdiscover ing", "P ete", "ĠA n", "ĠB ir", "E lla", "âĤ¬ÅĵDon Ã¢", "Ġ Once", "Bob by", "Ġe ast", "ĠS ure", "Jo ey", "Gra ndpa", "Ġtwink ling", "Ġres ult", "Ġexp ect", "Ġsurf ace", "h h", "Ġsor ting", "Ġd ent", "Ġsto le", "âĤ¬Åĵ Why", "Ġwe st", "Ġintere st", "Ġv owed", "Ġte xture", "Ġgaz ed", "ĠG r", "Ġpur red", "ĠT uesday", "Ġste ep", "Ġguy s", "Ġba bies", "Ġsh ock", "Ġbe ard", "Ġmov ies", "ĠC arl", "ĠR ob", "Ġcaut ious", "exp ected", "e ars", "z en", "Ġpower s", "Ġapplaud ed", "Ġsil ence", "F r", "th ank", "Ġpebble s", "ĠBu bbles", "Ġent ire", "Ġloo se", "Ġcontro l", "Ġtick le", "Ġgun s", "Ġur ged", "Ġdragon s", "Ġac ted", "H appy", "\"S ee", "Ġdra gged", "Ġun expected", "Ġluxu ry", "ed ding", "Ġcatch es", "U h", "as on", "er n", "Ġm ittens", "Ġmus cles", "Ġchew ing", "Ġrock ing", "Ġfl at", "Ġfa b", "Ġdolphin s", "Ġcomplet ed", "Ġfab ric", "Ġcurtain s", "Ġemergen cy", "H enry", "M aggie", "Ġbl ink", "Ġintroduc ed", "un e", "Ġdire ction", "u ly", "Ġch ips", "\" Do", "Ġhon k", "Ġseas on", "Ġpat ience", "Ġstr ike", "Ġimport ance", "eez ing", "Ġrel uctantly", "Ġb ank", "Ġe ight", "Ġsl im", "ust ed", "Ġfigure d", "Ġhigh est", "Ġshiver ed", "Ġfro zen", "Ġlibr arian", "ĠBet ty", "Ġsolut ion", "Ġcont est", "Ġrock ed", "Ġachie ve", "Ġscream ing", "Ġchase s", "ĠZ oom", "Ġrepl ac", "Ġpour ing", "Ġshel ves", "Ġw ound", "ĠJ amie", "Ġtheir s", "Ġcr umb", "Ġrubb ing", "es ome", "Ġt i", "Ġhug ging", "Ġdri ves", "\" Sam", "Ġst aring", "Ġsor ted", "Ġsn ail", "Ġro aring", "âĤ¬Åĵ Oh", "led ge", "Ġincl ude", "- f", "F red", "Ġplane ts", "ĠAnn e", "Ġma ter", "ĠS anta", "Ġmater i", "Ġsafe r", "Ġpolice man", "Ġcur ly", "Ġsitu ation", "Ġfood s", "f it", "Ġgre et", "Ġaw esome", "Ġcan Ã¢", "Ġus ual", "v in", "Ġsigh s", "Ġknow ledge", "ite ly", "ir ts", "Ġpass ing", "Ġsh ined", "Ġflag s", "Ġex ha", "Ġd ared", "Ġbalan cing", "Ġpl enty", "Ġyou Ã¢", "Ġmat ched", "Ġtow els", "Ġli ed", "ul ts", "Ġhome work", "Le o", "Ġout fit", "th ough", "Ġslim y", "Ġbra very", "ĠL ulu", "Ġtr uly", "Ġpretend s", "ĠA unt", "av i", "Ġzoo keeper", "ac ob", "Ġcheer ing", "Ġhe el", "\"B ecause", "Ġw edding", "ĠT illy", "Ġgo als", "Ġrainbow s", "jam as", "Ġsaus ages", "J ames", "R emember", "cu se", "ĠH oppy", "Ġth reat", "Ġaccompl ish", "ĠMat t", "D anny", "ĠS usan", "Ġpat ted", "Ġca used", "Ġpaint ings", "ĠC laire", "Ġreach ing", "P aul", "ĠC ar", "Ġrest ing", "Ġradish es", "Ġarg uing", "Ġpack ing", "Ex cuse", "ber t", "Ġgrow ling", "Ġbloom ing", "ĠAl ways", "Ġspray ing", "Gra ce", "Ġfo c", "Ġwait er", "Ġexha usted", "i ar", "Ġstrugg le", "izz ie", "Ġsweet s", "Ġstick ing", "K itty", "Ġp out", "ence s", "Ġmark ers", "Ġmot ion", "Ġwork er", "Ġknee led", "ĠJess ie", "Ġpadd led", "ĠL ou", "Ġgrow l", "Ġsl ed", "im mer", "Ġsu itc", "Ġman e", "ĠF or", "Ġs way", "Ġsn ugg", "Ġstart led", "ĠMom o", "Ġcube s", "a a", "Ġresc ued", "Ġb oo", "Ġsp ike", "Ġwr itten", "Ġdust y", "Ġtravel ed", "Ġinv iting", "h ello", "Ġexp ected", "Ġbe ad", "Ġsl ap", "Ġcut s", "Ġc ent", "Ġbott les", "Ġmatch ing", "Ġgu est", "Ġsing er", "Ġflav or", "Ġreve al", "S ophie", "Ġlearn s", "! Ċ", "Ġhe av", "le e", "e ah", "Ġprincess es", "R o", "Ġcreat ing", "Ġregret ted", "Ġf art", "Ġbloom ed", "Ġtremb ling", "Ġreplace d", "Ġf ir", "Ġarri ve", "Ġ Yes", "Ġmar riage", "p ite", "Ġrecord ed", "ais ies", "Ġpencil s", "Ġinclud ed", "Ġla p", "Ġch uck", "Ġobser ved", "Ġdisag ree", "n joy", "Ġd aisies", "Ġpot s", "ĠL inda", "Ġactiv ities", "Ann ie", "Ġpray er", "Ġfi rm", "Ġtime r", "Ġpa jamas", "Ch arlie", "Ġroad s", "Ġwire s", "Ġremove d", "Ġdark ness", "Ġwor ries", "Ġus es", "\"H a", "Ġvent ured", "ĠM ad", "Ġcountry side", "Ġorgan izing", "Ġst are", "M rs", "Ġcomplet ely", "u zz", "ĠB y", "Ġwork ers", "Ġopen ing", "Ġfair ies", "Ġrelie f", "Ġwas ted", "ang led", "Ġle ap", ". ..", "Ġrepl y", "Ġown ers", "ĠA bby", "Ġstore keeper", "Re ady", "\"Re ally", "ĠB o", "Ġc ott", "Ġbe lly", "ĠSad ly", "ver s", "Ġran ger", "Ġfa ult", "at y", "Ġpart ic", "ĠJohn son", "Ġun f", "Good bye", "ĠJ u", "Ġquack ed", "Ġpolish ing", "Ġlea der", "Ġst ern", "or a", "id ing", "low ly", "Ġbec oming", "Ġfl ames", "Ġla mb", "ĠJe ff", "Ġkite s", "ct ions", "Ġagree s", "\"H ow", "Ġpoem s", "Ġpengu ins", "Ġwasn Ã¢", "After wards", "Ġface d", "ĠQu ack", "ess ie", "ĠO ut", "Ġevery body", "Ġsees aw", "How ever", "ĠP inky", "Ġfold ing", "Ġmelt ing", "Ġscale s", "Ġsque aled", "Ġth ro", "Ġheal ed", "y ou", "Ġvan ish", "ĠUn fortunately", "Ġhelm ets", "Ġw ink", "ĠL uke", "ĠB oth", "Ġlo gs", "ĠJ ones", "ĠJen na", "or ds", "Ġcrab s", "Ġthro at", "ĠM art", "\" M", "he ll", "ĠLe ave", "Ġus ually", "Ġopin ion", "ĠĊ ĠĊ", "Ġcrumb s", "Ġtra ctor", "Ġr ipe", "Ġd ipped", "op es", "l ings", "Ġsc ra", "Ġseem s", "Ġa st", "Ġlollipop s", "Ġtwink le", "Ġc ash", "Ġr isk", "ĠChr ist", "Ġteac hes", "Ġcom m", "ĠB ye", "Ġgrocer ies", "ĠFo llow", "Ġd en", "\" Tim", "id s", "Ġknight s", "i very", "as m", "Ġprov ided", "Ġdent ist", "Ġpol ished", "Ġval ued", "Ġstay ing", "el le", "Ġpee king", "a ze", "Ġsn akes", "ĠA dam", "Ġscr u", "Ġinterest ed", "Ġblow s", "Ġrub s", "ĠW atch", "Ġcautious ly", "H arry", "ĠDo lly", "Ġcra cked", "Ġr ings", "Ġun ited", "oph ia", "ara way", "ĠP ut", "Ġf araway", "Ġdes ert", "ĠS orry", "Ġwin ked", "Ġmiss es", "Ġprotect ing", "\" T", "A lex", "Ġf reed", "Ġmar ked", "E llie", "Ġyoung er", "Ġwr ist", "Ġclos es", "Ġwander ing", "m as", "Ġbalance d", "Ġchuck led", "Ġfu zzy", "Ġfore head", "Ġlisten s", "Ġpast ries", "Ġsing le", "ĠK ayla", "Ġsign ed", "g o", "Ġro bb", "ĠH annah", "Ġbead s", "Ġpartic ular", "Ġrose s", "Ġbo om", "ĠFo x", "Ġact ions", "Ġdirection s", "Ġhow ever", "âĤ¬Åĵ Mommy", "Ġcop y", "ig i", "ĠL izzy", "ĠSu zie", "M ittens", "Ġc ough", "Ġsplas hes", "Ġcrack ers", "r ance", "\" Uh", "au ra", "- oh", "Ġbake r", "Ġnap s", "Ġc ous", "pp ers", "Ġro ots", "Ġfill ing", "Ġsnowball s", "Ġyes terday", "âĤ¬ÅĵWhat Ã¢", "Ġrest ored", "Ġflutter ed", "Ġdeliver y", "Ġroll s", "ab el", "ar ling", "Ġst em", "Ġco nn", "Ġsw ooped", "d ies", "il es", "Ġgaz e", "Ġsuit case", "Ġwigg led", "Un fortunately", "Ġtip t", "ĠN ina", "il o", "Ġsome body", "ick ey", "Ġb umpy", "Ġitch y", "bb ly", "Ġref le", "S andy", "Ġsw irl", "Ġsl am", "ĠChrist mas", "Ë ľ", "Ġphot os", "âĤ¬ Ëľ", "ol ine", "Ġtw in", "Ġpast els", "Ġcelebr ation", "Ġtrip s", "Ġped als", "A b", "ĠP ipp", "at ches", "Ġback ed", "Ġtall est", "Ġaw ake", "ĠKe ep", "Ġfro ze", "Ġc ause", "Ġcash ier", "Ġn ect", "Ġrem ote", "Ġl ined", "Ġdark er", "Ġdeterm ination", "Ġnect ar", "il ity", "\"O r", "Ġspe aking", "Ġsec ure", "or med", "ĠDo ggy", "ĠM any", "Ġkne es", "-b oo", "K ate", "Ġw ow", "ĠF riend", "\" P", "Ġpig gy", "an es", "Ġcomplain ing", "Ġb ars", "p er", "Y um", "Ġrecord ing", "Ġsneak y", "Ġsil ent", "Ġvide os", "oy s", "Ġheal th", "Ġaccomplish ment", "? '", "Ġli qu", "Ġple asure", "Ġac ting", "?\" ,", "\"O uch", "Ġent rance", "Ġt y", "ĠB ird", "Ġwe ars", "Ġrock ets", "B un", "Ġdeliver ed", "Ġmil es", "Ġgl ee", "Ġin sp", "Ġh i", "es mer", "Ġcolour ed", "M illie", "Ġo pp", "ĠPr in", "Ġtri cked", "ĠE njoy", "M ay", "Ġm esmer", "ĠBe ing", "\"No t", "se qu", "bo at", "Ġcheek s", "ĠM o", "y ond", "Ġa ff", "Ġbe yond", "Ġafter wards", "Ġno on", "Ġs ib", "Ġcon sequ", "N ina", "Ġhis sed", "Ġstay s", "c ited", "Ġinsect s", "um m", "Ġglass es", "k y", "Ġbowl s", "\"S p", "Ġjo king", "\" There", "To by", "ĠNo thing", "Ġso bbed", "Ġtick led", "Ġfar ther", "F ine", "Ġcolor ed", "Ġbur st", "aff es", "Ġsc aring", "Ġsto len", "Ġatt ack", "Ġs ense", "Ġsandcast les", "Ġtrick y", "Ġru le", "Ġmask s", "ar ter", "Ġcover s", "S h", "ik i", "R ose", "S ad", "Ġde al", "Ġ ĠĊĊ", "Ġgiraffe s", "Ġinstr um", "âĤ¬Åĵ Come", "Ġcalm ed", "Ġhand ful", "Ġtalent ed", "ĠSpark y", "Ġp ause", "Ġt angled", "Ġind eed", "ar en", "Ġadd ing", "Ġsmart er", "Ġscar ves", "Ġcand ies", "th s", "ĠJess ica", "Ġl ung", "Ġshirt s", "Ġachie ved", "Ġcho ices", "Ġconsequ ences", "Ġliqu id", "o ssible", "L illy", "Ġyour selves", "ri ous", "Ġbeh avi", "Ġlead ing", "Ġbump s", "âĤ¬ Ċ", "Ġread s", "Ġbatter ies", "ig ers", "ch oo", "Ġhesit ated", "Ġimp ossible", "O w", "Ġbad ge", "ĠT ara", "ĠM on", "ep t", "Ġm i", "P olly", "r ig", "Ġpad dle", "Ġmix ture", "Ġexplore rs", "ĠTw o", "\" Max", "Ġd arling", "il ed", "Ġmagn ets", "ll ing", "ĠM el", "ou ch", "Ġclown s", "Ġkick s", "ĠG et", "Ġrecommend ed", "an a", "Ġweep ing", "Ġgrace fully", "n ers", "Ġexper ien", "ĠC indy", "ĠLiz zie", "ĠJ on", "Ġseas hell", "Ġseek er", "Ġbake ry", "Ġfirefight ers", "ang ing", "ĠJul ia", "Ġsal ty", "ve st", "br ush", "Ġimpro ved", "Ġswe pt", "Th ose", "at ul", "co at", "Ġdeser ve", "Ġstro ked", "O uch", "ugg les", "ĠP andy", "Ġfl apping", "Ġwip es", "Ġbegin ning", "M illy", "Ġcompl ained", "Ġmushroom s", "ur ry", "ĠJ acob", "ĠE l", "he e", "y an", "Ġhid er", "\" They", "o body", "itc hes", "ĠS que", "ĠS qu", "ĠM ickey", "Ġste er", "Ġknock s", "Ġc ust", "Ġth orn", "ĠH appy", "Ġse ven", "Ġcan s", "B l", "Ġte ased", "\" L", "S ome", "Ġobject s", "Ġpart ies", "D ays", "âĤ¬Åĵ Do", "Ġtravel led", "Ġth ird", "ĠL arry", "ĠG igi", "Ġhe aring", "- t", "ĠPrin cess", "Ġbase ment", "Ġtiger s", "Ġcup cakes", "Ġhor iz", "Ġcl ick", "âĤ¬ÅĵYou Ã¢", "Ġfe ver", "Ġsn uck", "Ġhead ing", "Ġsecond s", "Ġdo ts", "Ġrain coat", "t le", "ĠSn uggles", "Ġsib lings", "Ġhoriz on", "el ia", "Ġsmile y", "Ġperform ance", "Ġcust om", "ĠP l", "Ġart ist", "Ġhall way", "n o", "Ġbe am", "Ġmark er", "Ġsn atched", "Ġlight er", "Ġyell s", "Ġjack ets", "Ġdrum s", "Ġflutter ing", "ind r", "ĠLe na", "âĤ¬Åĵ Hi", "an s", "st ep", "R u", "p are", "ĠL uckily", "Ġru ining", "\" The", "Ġgem s", "Ġbed time", "ig ning", "Ġwouldn Ã¢", "Ġra indr", "Ġwe e", "Ġne ither", "Ġcon cer", "Ġbuy ing", "rig ued", "Ġpupp ies", "ĠS lowly", "Ġlet t", "d ri", "ĠW ater", "ĠWith out", "Ġpa ying", "Ġscru bbed", "Ġcelebr ating", "Ġfamil ies", "Ġdoll house", "\"Re ady", "Ġann oy", "âĤ¬Åĵ Wow", "Ġcream y", "Ġlett uce", "b and", "Ġam ong", "umb ling", "Ġpeace fully", "Ġriver s", "Ġscratch es", "Ġwra pping", "Ġwide ned", "Ġdrift ed", "Ġwa dd", "Bob o", "Ġr umble", "R ex", "Ġtask s", "at ur", "iv ity", "ad es", "Ġtree house", "Ġhid es", "Ġw ins", "Ġre pa", "Ġbehave d", "c ers", "Ġrust y", "al ph", "Ġplay ers", "ĠEvery body", "Ġwon Ã¢", "ĠBu zzy", "Ġl un", "D an", "ĠJ azz", "T ina", "a el", "Ġcudd ly", "immer ing", "he w", "Ġun s", "Ġfa ct", "f all", "\" Sara", "oun ce", "Ġarrow s", "Ġreward ed", "Ġwill ing", "\"I s", "Ġl ower", "Ġneed les", "Ġsour ce", "Ġcreat ivity", "Ġshr inking", "Ġc or", "Ġlo sing", "Ġtemp er", "Ġe ch", "Ġrepair ed", "Ġpass en", "Ġfe ars", "ie ce", "Ġgrandpa re", "Ġinclud ing", "Ġch oo", "Ġtipt oed", "it ched", "Ġcreat ions", "Ġta pped", "ĠA bbie", "Ġgrass y", "Ġchef s", "Cl ara", "ong r", "ĠGood bye", "Ġde f", "d ed", "Ġminer als", "j o", "Ġsepar ated", "ĠEm my", "Ġsprink led", "Ġr ising", "Ġimag ining", "ĠJ une", "Ġgrant ed", "ich ael", "Ġch op", "Ġa ud", "Ġg ross", "ĠR ock", "Ġtem pt", "Ġare n", "G reat", "ĠL aura", "ĠS ophia", "\"R un", "\" Did", "Ġswims uit", "ongr atul", "im on", "ĠZ ip", "Ġt iss", "Ġpan s", "Ġl imes", "ho g", "Ġstom ped", "\" Spot", "Ġscrew dri", "Ġc oup", "Ġgra bbing", "ĠP o", "Ġpout ed", "Ġback wards", "Ġsp ong", "it ude",
[...]
